unsigned char PM10_cnn_test_tflite[] = {
  0x1c, 0x00, 0x00, 0x00, 0x54, 0x46, 0x4c, 0x33, 0x14, 0x00, 0x20, 0x00,
  0x1c, 0x00, 0x18, 0x00, 0x14, 0x00, 0x10, 0x00, 0x0c, 0x00, 0x00, 0x00,
  0x08, 0x00, 0x04, 0x00, 0x14, 0x00, 0x00, 0x00, 0x1c, 0x00, 0x00, 0x00,
  0x88, 0x00, 0x00, 0x00, 0xe0, 0x00, 0x00, 0x00, 0xac, 0x15, 0x00, 0x00,
  0xbc, 0x15, 0x00, 0x00, 0x64, 0x1f, 0x00, 0x00, 0x03, 0x00, 0x00, 0x00,
  0x01, 0x00, 0x00, 0x00, 0x04, 0x00, 0x00, 0x00, 0x4e, 0xe9, 0xff, 0xff,
  0x0c, 0x00, 0x00, 0x00, 0x1c, 0x00, 0x00, 0x00, 0x38, 0x00, 0x00, 0x00,
  0x0f, 0x00, 0x00, 0x00, 0x73, 0x65, 0x72, 0x76, 0x69, 0x6e, 0x67, 0x5f,
  0x64, 0x65, 0x66, 0x61, 0x75, 0x6c, 0x74, 0x00, 0x01, 0x00, 0x00, 0x00,
  0x04, 0x00, 0x00, 0x00, 0x94, 0xff, 0xff, 0xff, 0x12, 0x00, 0x00, 0x00,
  0x04, 0x00, 0x00, 0x00, 0x07, 0x00, 0x00, 0x00, 0x64, 0x65, 0x6e, 0x73,
  0x65, 0x5f, 0x33, 0x00, 0x01, 0x00, 0x00, 0x00, 0x04, 0x00, 0x00, 0x00,
  0xd6, 0xea, 0xff, 0xff, 0x04, 0x00, 0x00, 0x00, 0x0c, 0x00, 0x00, 0x00,
  0x63, 0x6f, 0x6e, 0x76, 0x31, 0x64, 0x5f, 0x69, 0x6e, 0x70, 0x75, 0x74,
  0x00, 0x00, 0x00, 0x00, 0x02, 0x00, 0x00, 0x00, 0x34, 0x00, 0x00, 0x00,
  0x04, 0x00, 0x00, 0x00, 0xdc, 0xff, 0xff, 0xff, 0x15, 0x00, 0x00, 0x00,
  0x04, 0x00, 0x00, 0x00, 0x13, 0x00, 0x00, 0x00, 0x43, 0x4f, 0x4e, 0x56,
  0x45, 0x52, 0x53, 0x49, 0x4f, 0x4e, 0x5f, 0x4d, 0x45, 0x54, 0x41, 0x44,
  0x41, 0x54, 0x41, 0x00, 0x08, 0x00, 0x0c, 0x00, 0x08, 0x00, 0x04, 0x00,
  0x08, 0x00, 0x00, 0x00, 0x14, 0x00, 0x00, 0x00, 0x04, 0x00, 0x00, 0x00,
  0x13, 0x00, 0x00, 0x00, 0x6d, 0x69, 0x6e, 0x5f, 0x72, 0x75, 0x6e, 0x74,
  0x69, 0x6d, 0x65, 0x5f, 0x76, 0x65, 0x72, 0x73, 0x69, 0x6f, 0x6e, 0x00,
  0x16, 0x00, 0x00, 0x00, 0xc8, 0x14, 0x00, 0x00, 0xc0, 0x14, 0x00, 0x00,
  0xac, 0x14, 0x00, 0x00, 0x80, 0x14, 0x00, 0x00, 0x5c, 0x14, 0x00, 0x00,
  0xcc, 0x13, 0x00, 0x00, 0xb4, 0x13, 0x00, 0x00, 0x8c, 0x13, 0x00, 0x00,
  0x78, 0x13, 0x00, 0x00, 0x68, 0x04, 0x00, 0x00, 0xf4, 0x03, 0x00, 0x00,
  0xd0, 0x03, 0x00, 0x00, 0xc0, 0x00, 0x00, 0x00, 0xb8, 0x00, 0x00, 0x00,
  0xb0, 0x00, 0x00, 0x00, 0xa8, 0x00, 0x00, 0x00, 0xa0, 0x00, 0x00, 0x00,
  0x98, 0x00, 0x00, 0x00, 0x90, 0x00, 0x00, 0x00, 0x88, 0x00, 0x00, 0x00,
  0x68, 0x00, 0x00, 0x00, 0x04, 0x00, 0x00, 0x00, 0xaa, 0xeb, 0xff, 0xff,
  0x04, 0x00, 0x00, 0x00, 0x54, 0x00, 0x00, 0x00, 0x0c, 0x00, 0x00, 0x00,
  0x08, 0x00, 0x0e, 0x00, 0x08, 0x00, 0x04, 0x00, 0x08, 0x00, 0x00, 0x00,
  0x10, 0x00, 0x00, 0x00, 0x24, 0x00, 0x00, 0x00, 0x00, 0x00, 0x06, 0x00,
  0x08, 0x00, 0x04, 0x00, 0x06, 0x00, 0x00, 0x00, 0x04, 0x00, 0x00, 0x00,
  0x00, 0x00, 0x00, 0x00, 0x00, 0x00, 0x0a, 0x00, 0x10, 0x00, 0x0c, 0x00,
  0x08, 0x00, 0x04, 0x00, 0x0a, 0x00, 0x00, 0x00, 0x01, 0x00, 0x00, 0x00,
  0x02, 0x00, 0x00, 0x00, 0x04, 0x00, 0x00, 0x00, 0x05, 0x00, 0x00, 0x00,
  0x32, 0x2e, 0x39, 0x2e, 0x32, 0x00, 0x00, 0x00, 0x0a, 0xec, 0xff, 0xff,
  0x04, 0x00, 0x00, 0x00, 0x10, 0x00, 0x00, 0x00, 0x31, 0x2e, 0x31, 0x30,
  0x2e, 0x30, 0x00, 0x00, 0x00, 0x00, 0x00, 0x00, 0x00, 0x00, 0x00, 0x00,
  0x84, 0xe2, 0xff, 0xff, 0x88, 0xe2, 0xff, 0xff, 0x8c, 0xe2, 0xff, 0xff,
  0x90, 0xe2, 0xff, 0xff, 0x94, 0xe2, 0xff, 0xff, 0x98, 0xe2, 0xff, 0xff,
  0x9c, 0xe2, 0xff, 0xff, 0x42, 0xec, 0xff, 0xff, 0x04, 0x00, 0x00, 0x00,
  0x00, 0x03, 0x00, 0x00, 0x0d, 0x11, 0x18, 0xbc, 0x4d, 0xca, 0x23, 0x3e,
  0x27, 0x68, 0x53, 0xbe, 0x79, 0x10, 0x9c, 0x3e, 0x57, 0xc2, 0x90, 0x3d,
  0x7f, 0x20, 0x98, 0x3e, 0xdf, 0x77, 0xa2, 0xbd, 0x47, 0xe4, 0xee, 0xbd,
  0x2c, 0xc7, 0x3e, 0x3e, 0xc3, 0xc3, 0x7c, 0x3e, 0x54, 0x98, 0x4b, 0x3e,
  0x01, 0x6d, 0xd5, 0xbd, 0x50, 0x0c, 0xd3, 0x3e, 0xd8, 0xc6, 0x12, 0x3e,
  0x0d, 0x72, 0x9e, 0x3d, 0x8d, 0x40, 0x90, 0x3d, 0x9a, 0x27, 0x68, 0x3e,
  0xee, 0x5d, 0xf1, 0xbd, 0xe2, 0x09, 0x07, 0x3f, 0xcc, 0x86, 0xb4, 0x3d,
  0x63, 0xff, 0xf0, 0x3c, 0x38, 0xc6, 0xfe, 0xbe, 0x55, 0x38, 0x8e, 0x3d,
  0x0c, 0xe1, 0x50, 0xbe, 0x20, 0xb6, 0x90, 0xbd, 0xe4, 0x08, 0x2f, 0xbe,
  0xee, 0xb3, 0x68, 0xbe, 0x38, 0xb8, 0xf8, 0x3d, 0x28, 0xa8, 0x9b, 0x3e,
  0xb2, 0x62, 0xaf, 0x3e, 0x94, 0x04, 0xb1, 0x3e, 0x46, 0x76, 0xcb, 0x3d,
  0xae, 0xf2, 0x34, 0x3d, 0xae, 0x4a, 0x51, 0xbe, 0x49, 0xea, 0xbd, 0x3d,
  0xc6, 0x48, 0xaf, 0xbe, 0x7a, 0xd1, 0xea, 0xbc, 0x60, 0x31, 0xd2, 0xbc,
  0x75, 0x73, 0x78, 0xbe, 0xca, 0x31, 0x47, 0x3f, 0xef, 0xe9, 0x0f, 0xbd,
  0x9d, 0xb0, 0x93, 0x3c, 0xd5, 0x7b, 0x93, 0x3d, 0x66, 0xf6, 0x5d, 0xbe,
  0x3c, 0x9a, 0xed, 0xbc, 0xf7, 0xfe, 0x95, 0x3e, 0x47, 0xbb, 0x28, 0x3d,
  0x70, 0x80, 0x55, 0x3e, 0x07, 0x33, 0x88, 0xbd, 0xbb, 0x7f, 0x42, 0xbe,
  0x81, 0x92, 0x72, 0xbd, 0xf6, 0xc9, 0xf5, 0x3e, 0xe2, 0x80, 0x50, 0x3e,
  0xc7, 0xda, 0x7a, 0xbd, 0xde, 0xef, 0xdc, 0x3d, 0x31, 0xd5, 0xc6, 0xbb,
  0xbf, 0xa2, 0x20, 0xbe, 0xa5, 0x1d, 0xfa, 0x3e, 0xf8, 0x2d, 0x24, 0xbe,
  0x7c, 0x22, 0xf2, 0x3d, 0xbb, 0x0b, 0x92, 0x3d, 0xc3, 0xd2, 0xc3, 0xbd,
  0x44, 0x6d, 0xaf, 0x3d, 0x7c, 0xb0, 0x91, 0xbd, 0xdd, 0x2f, 0x07, 0x3e,
  0x70, 0x56, 0x94, 0x3e, 0x72, 0x45, 0x84, 0x3d, 0x2a, 0xae, 0x61, 0xbe,
  0xa8, 0x3b, 0x97, 0xbe, 0xf5, 0x64, 0x93, 0xbe, 0x09, 0x22, 0x7f, 0x3e,
  0x5f, 0x75, 0x8f, 0xbe, 0x35, 0x67, 0x3c, 0x3e, 0xd9, 0xf4, 0x5d, 0xbd,
  0x7b, 0x60, 0xac, 0xbd, 0x6a, 0xaf, 0xe0, 0x3d, 0x16, 0xc5, 0xfd, 0xbd,
  0x54, 0x1b, 0x6f, 0x3e, 0x4d, 0x81, 0xfa, 0xbd, 0xe3, 0x74, 0xad, 0xbb,
  0xeb, 0x3e, 0x84, 0xbd, 0xd3, 0x82, 0xef, 0x3d, 0xed, 0xee, 0x5f, 0x3e,
  0xb4, 0x41, 0x6a, 0x3e, 0x24, 0xb3, 0x03, 0x3f, 0x1b, 0x3e, 0x8b, 0x3e,
  0x55, 0x0c, 0x90, 0x3e, 0x19, 0x15, 0x9a, 0xbe, 0xb6, 0xbf, 0xe0, 0x3d,
  0x18, 0xbd, 0x57, 0xbe, 0xf3, 0xa3, 0x70, 0xbd, 0x15, 0x5a, 0x49, 0xbe,
  0x32, 0x5b, 0x8b, 0xbd, 0x43, 0xdd, 0x0b, 0x3f, 0xc2, 0x5b, 0xf5, 0x3d,
  0xb1, 0xc0, 0x29, 0xbd, 0xb6, 0xea, 0x85, 0xbd, 0xf6, 0x14, 0x93, 0xbc,
  0x92, 0x2a, 0x39, 0xbe, 0xb5, 0x09, 0x25, 0x3d, 0x27, 0xce, 0x3b, 0x3e,
  0xd3, 0x9e, 0x0c, 0x3e, 0xdd, 0x75, 0x80, 0xbd, 0xc7, 0xcf, 0xa2, 0xbd,
  0x17, 0xf9, 0x9d, 0x3e, 0x05, 0x53, 0x4c, 0xbd, 0x7d, 0xbf, 0xee, 0xbd,
  0x40, 0x87, 0x4c, 0x3e, 0x23, 0x36, 0xa6, 0x3d, 0x37, 0x46, 0xa0, 0xbd,
  0x3a, 0xc5, 0x8d, 0xbe, 0xc9, 0xb1, 0xb1, 0x3e, 0xf0, 0xca, 0x0e, 0x3d,
  0xd0, 0xc6, 0x30, 0x3e, 0x04, 0x35, 0x43, 0xbd, 0x32, 0xb6, 0xbe, 0x3c,
  0xdf, 0x7b, 0xbf, 0x3d, 0xb7, 0x85, 0x8f, 0x3e, 0xd1, 0x6b, 0x61, 0xbd,
  0x39, 0x3a, 0xce, 0xbd, 0x30, 0x0c, 0xe7, 0xbc, 0xfc, 0x15, 0x0d, 0x3e,
  0x52, 0x99, 0x27, 0xbd, 0x4d, 0x79, 0xe0, 0x3e, 0x5b, 0x06, 0xc1, 0xbc,
  0xc7, 0x3f, 0x33, 0xbd, 0x43, 0xaa, 0x3b, 0xbe, 0x56, 0x42, 0x70, 0xbd,
  0x04, 0xd5, 0x3c, 0xbe, 0x5e, 0x55, 0xb2, 0x3e, 0x57, 0xf2, 0x60, 0x3e,
  0x53, 0x3c, 0x1f, 0xbc, 0xdb, 0xbb, 0x06, 0xbd, 0xa0, 0xd6, 0x3b, 0xbe,
  0x7b, 0x61, 0x01, 0xbe, 0x67, 0x6f, 0xc6, 0x3e, 0xb1, 0x2a, 0xb2, 0x3d,
  0x91, 0x49, 0x21, 0x3e, 0x27, 0x15, 0x22, 0xbe, 0x2c, 0x36, 0xe0, 0x3c,
  0x9f, 0xa7, 0xa8, 0xbd, 0xa6, 0x2d, 0x4f, 0x3e, 0xc8, 0x9f, 0xb1, 0x3e,
  0xb2, 0xe6, 0xb3, 0x3b, 0x18, 0x5e, 0x04, 0x3e, 0x39, 0x7e, 0x6c, 0xbe,
  0xe1, 0xbc, 0x48, 0x3e, 0xab, 0xe0, 0xf7, 0x3d, 0x2b, 0xb2, 0x16, 0x3e,
  0x52, 0xa7, 0x20, 0xbe, 0x4f, 0xe4, 0x30, 0xbd, 0xfe, 0x28, 0x35, 0xbd,
  0x89, 0xd6, 0x4d, 0xbe, 0x85, 0x29, 0x6e, 0x3e, 0x48, 0x4c, 0x87, 0x3e,
  0xc8, 0xf5, 0x42, 0x3e, 0xde, 0x31, 0x46, 0xbe, 0x07, 0x02, 0x19, 0x3e,
  0x8d, 0xd6, 0xda, 0xbd, 0xb1, 0x8e, 0x48, 0x3e, 0xb6, 0x32, 0xf6, 0x3d,
  0x15, 0x80, 0x66, 0xbd, 0x10, 0x1d, 0x51, 0xbd, 0xb0, 0x0a, 0x5f, 0xbe,
  0x0e, 0x2d, 0xce, 0x3d, 0x0a, 0x2d, 0x07, 0x3f, 0xe8, 0xff, 0x17, 0xbc,
  0x62, 0xd6, 0xaf, 0xbd, 0x55, 0x60, 0x98, 0xbd, 0x36, 0xce, 0x9b, 0x3d,
  0xd7, 0xb4, 0x49, 0x3e, 0xee, 0x41, 0x9b, 0x3e, 0x67, 0xc9, 0x5d, 0x3c,
  0x6c, 0x44, 0x2d, 0xbe, 0x11, 0xc4, 0x70, 0x3e, 0xa1, 0xb4, 0x9d, 0x3d,
  0xf9, 0x9c, 0xed, 0x3d, 0x10, 0x3f, 0x5d, 0x3f, 0x19, 0x2d, 0x01, 0xbd,
  0xb0, 0x3b, 0xa5, 0x3e, 0x89, 0x24, 0x9d, 0xbc, 0x52, 0xd6, 0x13, 0xbc,
  0xb3, 0x38, 0x38, 0xbe, 0x36, 0xa1, 0xf3, 0x3e, 0x14, 0xd4, 0xe2, 0xbc,
  0x43, 0x37, 0x49, 0x3d, 0x51, 0xe6, 0xa2, 0x3d, 0x4b, 0x18, 0xd1, 0xbc,
  0x23, 0x39, 0xa6, 0xbd, 0x0e, 0x66, 0x92, 0x3e, 0x85, 0x92, 0x48, 0xbd,
  0x0d, 0x14, 0x1d, 0x3b, 0x4e, 0xef, 0xff, 0xff, 0x04, 0x00, 0x00, 0x00,
  0x14, 0x00, 0x00, 0x00, 0x7a, 0x13, 0xb8, 0x3e, 0x56, 0x66, 0x6f, 0xbf,
  0x66, 0xa5, 0x4a, 0x3f, 0xa9, 0x1c, 0x1e, 0xbe, 0x98, 0xeb, 0xa5, 0x3f,
  0x6e, 0xef, 0xff, 0xff, 0x04, 0x00, 0x00, 0x00, 0x64, 0x00, 0x00, 0x00,
  0x81, 0x6d, 0x4c, 0x3f, 0x66, 0x5d, 0x52, 0x3f, 0x30, 0x4e, 0x00, 0xbe,
  0x1b, 0xd1, 0x55, 0x3f, 0x44, 0xa0, 0x3d, 0x3f, 0x5e, 0xe3, 0x13, 0x3f,
  0x12, 0x63, 0xa9, 0xbe, 0xec, 0x10, 0x42, 0x3f, 0xba, 0x6a, 0x99, 0xbe,
  0x0b, 0x00, 0x07, 0xbe, 0x43, 0xbe, 0xd1, 0xbe, 0x91, 0x10, 0x2b, 0x3f,
  0x07, 0x72, 0x1a, 0xbf, 0x38, 0x29, 0x9d, 0xbe, 0x16, 0x8c, 0xa7, 0xbe,
  0x7b, 0x21, 0x05, 0xbf, 0x1d, 0x48, 0x83, 0x3e, 0xa1, 0xaa, 0xd8, 0xbe,
  0x56, 0x80, 0xa4, 0xbe, 0x57, 0xc6, 0xe6, 0xbe, 0x19, 0xbe, 0x40, 0x3f,
  0x4b, 0x53, 0x32, 0x3f, 0x38, 0x3b, 0xe8, 0xbe, 0x2f, 0x87, 0x43, 0x3f,
  0xdf, 0xe2, 0x75, 0x3f, 0xde, 0xef, 0xff, 0xff, 0x04, 0x00, 0x00, 0x00,
  0x00, 0x0f, 0x00, 0x00, 0x86, 0xf2, 0x45, 0x3e, 0x6b, 0x6e, 0x7a, 0x3e,
  0x6f, 0x39, 0xa2, 0xbb, 0x7d, 0x3d, 0x5e, 0x3d, 0x9c, 0xf9, 0xb5, 0x3d,
  0xe5, 0x1f, 0x09, 0x3e, 0xb5, 0x07, 0x1e, 0xbe, 0x52, 0xd4, 0x1d, 0x3c,
  0xf6, 0x8f, 0xd3, 0xbd, 0xf2, 0x20, 0xcf, 0x3d, 0x64, 0xf8, 0xa8, 0x3d,
  0xdf, 0x19, 0x07, 0xbe, 0xd2, 0xe5, 0x5e, 0x3e, 0xa6, 0x98, 0x7d, 0xbd,
  0x89, 0x59, 0xc7, 0xbd, 0xd4, 0x86, 0x9f, 0x3d, 0x35, 0x41, 0x4d, 0x3e,
  0xa7, 0x59, 0x8c, 0x3e, 0x4a, 0xfd, 0x0b, 0x3e, 0x02, 0x19, 0x41, 0xbd,
  0xbf, 0x13, 0x71, 0x3d, 0x52, 0xa8, 0xf1, 0x3c, 0x13, 0x69, 0x6f, 0x3e,
  0x52, 0xb9, 0x46, 0x3d, 0x06, 0x27, 0x86, 0x3e, 0x84, 0xb4, 0x35, 0x3d,
  0x55, 0xfd, 0xf4, 0x3d, 0xf3, 0xda, 0x9e, 0x3d, 0x0e, 0x5e, 0x57, 0x3e,
  0x00, 0xa2, 0x92, 0x3d, 0xb6, 0x50, 0x8c, 0xbd, 0xe2, 0x52, 0x88, 0x3d,
  0x21, 0x6c, 0xb5, 0xbd, 0x72, 0x59, 0xc2, 0x3d, 0x80, 0x77, 0xe1, 0xbd,
  0x1f, 0x45, 0x0c, 0x3e, 0x42, 0x5c, 0xb4, 0x3d, 0xb6, 0xca, 0x7f, 0x3e,
  0x75, 0x91, 0x19, 0xbe, 0xa7, 0x9f, 0x40, 0x3e, 0x6c, 0x3c, 0xe7, 0x3d,
  0xf9, 0x54, 0x33, 0xbe, 0xed, 0xb3, 0x3d, 0x3c, 0xc6, 0x3d, 0xb2, 0x3d,
  0x2d, 0xeb, 0xae, 0xbd, 0xe3, 0x95, 0x5b, 0x3e, 0x96, 0x19, 0xa2, 0x3d,
  0x8a, 0xdc, 0x7b, 0x3c, 0x2f, 0xd2, 0x11, 0x3e, 0x96, 0xa0, 0x20, 0x3e,
  0x14, 0x85, 0xb8, 0xbd, 0x97, 0xa0, 0x4d, 0x3e, 0x19, 0x5e, 0xe5, 0xbd,
  0xe2, 0x1a, 0x3f, 0x3e, 0xba, 0xed, 0x78, 0x3e, 0x18, 0x1c, 0xd5, 0x3d,
  0xc4, 0x3f, 0x50, 0x3e, 0xc3, 0xbf, 0x6b, 0x3d, 0xa9, 0x19, 0x3c, 0xbb,
  0x8c, 0xbe, 0x05, 0x3e, 0xe1, 0x48, 0x43, 0xbd, 0x7d, 0xac, 0xf8, 0xbd,
  0x81, 0x61, 0xdd, 0x3d, 0x8d, 0x47, 0x00, 0xbe, 0x30, 0xa8, 0x11, 0xbe,
  0x52, 0x8a, 0x0c, 0x3e, 0xa8, 0x18, 0x5e, 0xbe, 0x2a, 0xe5, 0x96, 0x3d,
  0xbf, 0x7d, 0x48, 0xbd, 0x3f, 0x12, 0x20, 0x3d, 0x65, 0x6e, 0xc7, 0xbd,
  0x51, 0xd8, 0x51, 0x3e, 0x3b, 0x21, 0xc8, 0x3d, 0xd3, 0x7a, 0x47, 0xbd,
  0x08, 0xf5, 0xcc, 0x3d, 0x0e, 0x40, 0xd1, 0xbd, 0xf3, 0x3b, 0x18, 0x3e,
  0x52, 0xb6, 0x86, 0x3e, 0x35, 0x54, 0x91, 0x3e, 0xc0, 0xdf, 0x3c, 0x3e,
  0xee, 0x19, 0x82, 0x3d, 0xea, 0x3c, 0x3d, 0xbb, 0x9a, 0xe9, 0x87, 0x3c,
  0x9d, 0x04, 0x09, 0x3e, 0x1c, 0x98, 0x72, 0x3d, 0xe9, 0x5d, 0x8a, 0xbc,
  0x2a, 0x29, 0x27, 0xbc, 0x6e, 0x8d, 0xa0, 0x3e, 0x88, 0x26, 0xc4, 0x3d,
  0x23, 0xf9, 0x28, 0x3a, 0x70, 0x34, 0x2c, 0x3d, 0xd8, 0x6c, 0x02, 0xbe,
  0x84, 0x74, 0x0d, 0xbd, 0xa8, 0x69, 0x07, 0xbd, 0x4a, 0x21, 0x27, 0x3e,
  0x81, 0x71, 0x30, 0xbe, 0xec, 0x72, 0x31, 0xbd, 0x33, 0xd8, 0xa0, 0x3d,
  0xad, 0xbb, 0x76, 0xbe, 0x61, 0xae, 0x48, 0x3e, 0xf2, 0x35, 0x25, 0x3e,
  0x31, 0xc9, 0x1f, 0x3e, 0x36, 0xa3, 0x37, 0xbe, 0xaf, 0xe0, 0x10, 0x3d,
  0x30, 0x10, 0x99, 0xb8, 0x23, 0x90, 0x94, 0x3c, 0xc3, 0xdb, 0xef, 0x3d,
  0x86, 0x79, 0x13, 0x3e, 0x15, 0x3d, 0xb5, 0x3d, 0x9f, 0x01, 0xd5, 0x3d,
  0xb9, 0x55, 0x2b, 0x3d, 0xf4, 0x45, 0xe0, 0xbd, 0xe0, 0x86, 0x3b, 0x3e,
  0x27, 0xd9, 0x31, 0x3e, 0xfd, 0x59, 0x8b, 0x3c, 0xeb, 0x95, 0x10, 0xbe,
  0x3f, 0x5f, 0xb5, 0xbd, 0x70, 0x04, 0x95, 0xbd, 0x62, 0x44, 0x02, 0x3d,
  0x33, 0x60, 0x99, 0x3e, 0xe7, 0x6f, 0x95, 0x3d, 0x36, 0xc7, 0x6c, 0x3d,
  0xf8, 0x47, 0x94, 0x3d, 0xb9, 0x35, 0xbb, 0xbd, 0x1f, 0xd2, 0x58, 0x3d,
  0x0f, 0xd0, 0xa0, 0x3d, 0xea, 0xf9, 0xa1, 0xbd, 0x75, 0x89, 0xc5, 0xbd,
  0x0c, 0x8c, 0x83, 0xbd, 0x5b, 0x25, 0x5b, 0x3c, 0x11, 0x4f, 0x40, 0xbe,
  0x6a, 0x67, 0x92, 0x3d, 0x2a, 0x9b, 0x80, 0x3c, 0x62, 0x33, 0x73, 0x3d,
  0xd1, 0xa1, 0x40, 0x3e, 0x0f, 0x16, 0xb4, 0x3e, 0xdb, 0x2e, 0xcf, 0x3d,
  0x2a, 0x93, 0xc1, 0x3c, 0x6e, 0xe8, 0xc1, 0x3d, 0x97, 0x8f, 0x2e, 0xbe,
  0xbc, 0xb1, 0x51, 0x3e, 0xdb, 0x0f, 0x97, 0x3e, 0xe8, 0xe6, 0xde, 0x3c,
  0xfe, 0x3c, 0x33, 0x3e, 0x34, 0x5a, 0x27, 0x3e, 0x9b, 0x95, 0xd3, 0xbd,
  0xce, 0xd7, 0xea, 0x3d, 0x45, 0xa7, 0x1d, 0x3d, 0x10, 0x15, 0x22, 0x3e,
  0x29, 0xd2, 0xcf, 0x3d, 0xe3, 0x62, 0x79, 0x3e, 0xbb, 0xea, 0xbb, 0x3e,
  0xd1, 0x57, 0x6a, 0x3e, 0xf7, 0xac, 0x87, 0x3e, 0xa2, 0xa5, 0xd5, 0x3d,
  0x54, 0x29, 0x1f, 0x3e, 0x37, 0xbd, 0x23, 0x3e, 0x29, 0x91, 0xe4, 0xbd,
  0xea, 0xc7, 0x35, 0x3e, 0x42, 0xa2, 0xd2, 0xbd, 0x8c, 0xc4, 0xde, 0x3e,
  0xe9, 0xcf, 0xaf, 0x3e, 0x90, 0x1b, 0xb0, 0x3c, 0xbb, 0x02, 0x1c, 0xbf,
  0x3c, 0x20, 0xe2, 0x3e, 0xbe, 0x98, 0xd2, 0xbe, 0x0a, 0xc6, 0x02, 0x3f,
  0xa0, 0x70, 0x30, 0x3f, 0xfc, 0x91, 0x4c, 0x3f, 0xa8, 0xf9, 0x39, 0x3f,
  0x21, 0xdd, 0x6a, 0x3e, 0xb0, 0x6a, 0x94, 0xbd, 0x51, 0x03, 0xd8, 0x3e,
  0x5b, 0x5f, 0x4a, 0x3e, 0xfa, 0xd0, 0xc2, 0xbe, 0x80, 0x7f, 0x37, 0x3f,
  0x24, 0xf5, 0xf5, 0x3d, 0xde, 0xb5, 0x33, 0xbd, 0x64, 0xbb, 0x58, 0x3f,
  0x25, 0x68, 0x91, 0x3e, 0xe9, 0x60, 0xa1, 0x3e, 0xa6, 0xdf, 0x03, 0x3f,
  0xdb, 0xc2, 0x44, 0x3f, 0x63, 0x3d, 0x26, 0x3f, 0x8c, 0x88, 0x04, 0x3e,
  0x44, 0xde, 0xa8, 0x3e, 0x0e, 0xb6, 0x6b, 0x3e, 0x7c, 0x4b, 0x50, 0x3f,
  0x49, 0x92, 0xc0, 0x3e, 0x0a, 0x5b, 0x00, 0x3f, 0xa2, 0x9f, 0x53, 0x3f,
  0x4c, 0x45, 0x09, 0x3f, 0xea, 0x56, 0x8e, 0x3d, 0x77, 0x16, 0xb5, 0xbd,
  0xea, 0x64, 0x0c, 0xbd, 0xfc, 0x5c, 0x90, 0xbc, 0x61, 0x8a, 0x0f, 0x3e,
  0x09, 0xde, 0x02, 0x3e, 0x9a, 0x57, 0x2f, 0xbd, 0xff, 0x0f, 0xee, 0x3d,
  0xdb, 0x7f, 0xc7, 0x3c, 0x5b, 0xfc, 0x76, 0x3e, 0x31, 0xf4, 0x8b, 0xbc,
  0x83, 0x9c, 0xc1, 0xbd, 0xf6, 0x73, 0xd0, 0x3c, 0x10, 0x6a, 0x60, 0xbc,
  0xa9, 0x2c, 0x03, 0x3e, 0xe4, 0xb4, 0x88, 0x3d, 0xfd, 0x5e, 0x77, 0x3e,
  0xd0, 0xc1, 0x07, 0x3e, 0xa7, 0x31, 0x2f, 0xbd, 0x44, 0xca, 0x87, 0x3e,
  0xa2, 0x12, 0x91, 0x3d, 0x73, 0x0e, 0x08, 0xbe, 0xe6, 0x34, 0xcf, 0xbd,
  0xe2, 0x10, 0xf4, 0xbd, 0x2d, 0xb4, 0x01, 0x3e, 0x9c, 0xc8, 0xcf, 0xbd,
  0x22, 0x6f, 0x3a, 0x3e, 0xce, 0x07, 0xa7, 0xbd, 0x31, 0x65, 0x46, 0x3e,
  0x68, 0x4e, 0x09, 0x3c, 0x80, 0x17, 0x66, 0x3e, 0xdf, 0xd0, 0x3d, 0x3d,
  0xa5, 0x94, 0xe8, 0x3c, 0xf2, 0xc4, 0xe4, 0xba, 0x6e, 0x6b, 0x22, 0xbe,
  0x81, 0xff, 0x47, 0xbd, 0x41, 0x07, 0xb9, 0xbc, 0xd8, 0xf4, 0x69, 0x3b,
  0xa2, 0x21, 0xdb, 0xbd, 0xe1, 0xdb, 0xd2, 0x3c, 0x4d, 0x47, 0x21, 0xbe,
  0xfc, 0xd3, 0x07, 0xbe, 0xca, 0x88, 0x05, 0xbe, 0xa9, 0x86, 0xcc, 0xbd,
  0x5a, 0x4b, 0x6b, 0x3e, 0x31, 0xbe, 0xb4, 0x3d, 0xd1, 0x16, 0xe0, 0x3d,
  0x12, 0xeb, 0x82, 0x3b, 0x39, 0xbe, 0x85, 0x3d, 0x5c, 0xbb, 0xbe, 0xbd,
  0x34, 0xb8, 0x40, 0x3e, 0x71, 0x33, 0x67, 0x3d, 0xc8, 0x36, 0x74, 0xbd,
  0x89, 0xba, 0x03, 0x3c, 0xd6, 0x10, 0x2f, 0xbc, 0xb5, 0x0e, 0x53, 0x3e,
  0x3c, 0x89, 0x60, 0xbb, 0x84, 0xbe, 0x86, 0xbd, 0xbc, 0x1b, 0x08, 0x3d,
  0xa7, 0x69, 0x95, 0x3d, 0xb4, 0xad, 0xdf, 0xbd, 0x04, 0x05, 0xdc, 0xbd,
  0x93, 0x8d, 0xae, 0xbd, 0x45, 0x1c, 0xc9, 0xbd, 0xf0, 0x34, 0x44, 0xbe,
  0xa9, 0xb6, 0x4d, 0x3d, 0x82, 0x37, 0x05, 0xbe, 0x2f, 0x57, 0x37, 0x3b,
  0x01, 0xec, 0xd3, 0x3d, 0xfb, 0x7a, 0xa2, 0x3d, 0xeb, 0xf7, 0x80, 0xbe,
  0x93, 0x6c, 0x8c, 0x3d, 0x38, 0x69, 0x81, 0xbc, 0x31, 0x8d, 0x75, 0xbd,
  0x5f, 0xf0, 0xc6, 0xbd, 0xd0, 0x88, 0x19, 0xbd, 0xa7, 0x0b, 0xf0, 0x3d,
  0xae, 0x42, 0xdd, 0x3d, 0x9a, 0x2d, 0x3f, 0x3e, 0xe5, 0xa7, 0x81, 0xbd,
  0xae, 0x68, 0x7b, 0x3e, 0x64, 0xdd, 0xa5, 0xbd, 0x8e, 0x66, 0x39, 0x3e,
  0x1f, 0x4f, 0xb6, 0x3a, 0x60, 0x43, 0xb4, 0x3d, 0x8e, 0x31, 0x3e, 0x3e,
  0x88, 0xac, 0xbe, 0x3c, 0x05, 0x7a, 0x79, 0x3e, 0x73, 0x37, 0x52, 0xbd,
  0x06, 0x98, 0xe9, 0xbd, 0x89, 0x1e, 0x47, 0x3e, 0xb0, 0xad, 0x76, 0x3c,
  0xe9, 0x5e, 0xae, 0xbd, 0x79, 0xe5, 0x3e, 0xbe, 0x46, 0x1b, 0x2b, 0x3e,
  0x7c, 0x2a, 0x47, 0xbe, 0xab, 0x2d, 0xea, 0x3d, 0xc2, 0x9e, 0x7f, 0xbd,
  0x97, 0xe1, 0x6e, 0xbe, 0xc6, 0x16, 0x37, 0x3d, 0x47, 0x28, 0x9d, 0x3d,
  0xc1, 0x79, 0xf4, 0x3d, 0xe6, 0x3d, 0x11, 0x3c, 0x35, 0x71, 0x5d, 0x3e,
  0xe3, 0x2b, 0xda, 0xbd, 0xce, 0xd7, 0xe1, 0xbc, 0xea, 0x65, 0xd2, 0xbd,
  0x22, 0xdd, 0xdc, 0xbd, 0x6f, 0xcd, 0x4b, 0xbd, 0xea, 0xea, 0x75, 0x3e,
  0xd2, 0xdc, 0x75, 0x3e, 0x81, 0x70, 0xd2, 0x3d, 0xf3, 0x5f, 0x1c, 0x3e,
  0xd1, 0x23, 0x0a, 0x3e, 0x02, 0x98, 0x92, 0x3e, 0xb8, 0x5e, 0xc5, 0xbd,
  0x33, 0x64, 0xa4, 0x3d, 0x0e, 0x1f, 0x13, 0x3e, 0x34, 0xf7, 0x8e, 0xbc,
  0x07, 0x1b, 0x03, 0xbd, 0x04, 0x26, 0x6f, 0x3a, 0xe4, 0xce, 0x26, 0x3d,
  0x4f, 0x6b, 0x48, 0xbd, 0x98, 0xca, 0xe1, 0xbd, 0x37, 0xab, 0x69, 0x3d,
  0xb9, 0x4b, 0x26, 0xbe, 0xb1, 0x7e, 0xbd, 0xbd, 0x9c, 0x90, 0x4d, 0xbe,
  0xfa, 0x0d, 0x66, 0x3e, 0x34, 0xff, 0x9f, 0x38, 0x6b, 0xaa, 0xca, 0xbb,
  0xa0, 0x26, 0xbb, 0x3b, 0x5b, 0x03, 0x6b, 0x3e, 0x21, 0x1c, 0xf9, 0xbc,
  0xc7, 0x89, 0x67, 0x3e, 0x01, 0x6e, 0xcb, 0x3e, 0x54, 0x76, 0x0b, 0xbc,
  0xa6, 0xfd, 0x1f, 0x3c, 0x03, 0x37, 0x2c, 0x3e, 0xb3, 0x0d, 0x5a, 0x3d,
  0x48, 0x35, 0x4c, 0x3e, 0x66, 0x1f, 0x88, 0x3d, 0xa7, 0xf6, 0xcd, 0xbc,
  0xac, 0xe8, 0x5e, 0x3e, 0x1b, 0x50, 0x2f, 0x3e, 0x56, 0x0c, 0xbd, 0x3d,
  0x8e, 0x68, 0x97, 0x3e, 0xa8, 0xfa, 0x83, 0x3e, 0xec, 0xc2, 0xb1, 0x3d,
  0x34, 0x06, 0x2d, 0x3e, 0xdb, 0x01, 0x2e, 0x3e, 0x00, 0x52, 0x0a, 0x3e,
  0xd5, 0x0b, 0x78, 0x3e, 0x4e, 0x7a, 0xb4, 0x3e, 0xa0, 0x2f, 0x3d, 0x3e,
  0xcf, 0xc9, 0x2b, 0x3e, 0x68, 0xf1, 0x4e, 0x3e, 0x6c, 0xbf, 0xfa, 0x3d,
  0x65, 0xe3, 0xaa, 0x3e, 0x27, 0x33, 0x83, 0x3c, 0x65, 0x5c, 0x61, 0x3e,
  0xab, 0x10, 0xa2, 0x3e, 0xf2, 0x2c, 0x0c, 0x3d, 0xaa, 0xc1, 0x12, 0xbf,
  0x03, 0xa6, 0x0a, 0x3e, 0x55, 0xac, 0xc4, 0xbe, 0x5b, 0x16, 0x37, 0x3f,
  0xd4, 0x00, 0xf4, 0x3e, 0x15, 0x5f, 0x4d, 0x3f, 0xda, 0x5f, 0x1f, 0x3f,
  0xc4, 0xcf, 0x71, 0x3d, 0x41, 0xd5, 0x0d, 0xbe, 0x87, 0x0f, 0x84, 0x3e,
  0x10, 0x47, 0xda, 0x3e, 0xf4, 0x21, 0x0d, 0xbf, 0x97, 0xfb, 0x5d, 0x3f,
  0xa6, 0xe9, 0x82, 0x3d, 0x27, 0xa8, 0xb6, 0xbc, 0x9a, 0x53, 0x31, 0x3f,
  0x3b, 0x3c, 0xfb, 0x3e, 0xfe, 0x16, 0x80, 0x3e, 0xdb, 0x4c, 0xda, 0x3e,
  0x02, 0xc5, 0x01, 0x3f, 0x87, 0x6e, 0x22, 0x3f, 0x48, 0x1c, 0x8a, 0x3e,
  0x34, 0x60, 0x06, 0x3f, 0xd3, 0xbe, 0xb3, 0x3e, 0xb7, 0xba, 0x2d, 0x3f,
  0xf3, 0xc5, 0x8a, 0x3e, 0x5f, 0xc1, 0x9b, 0x3e, 0x06, 0x12, 0x52, 0x3f,
  0x18, 0xd7, 0x5e, 0x3e, 0x5a, 0x46, 0x9e, 0xbd, 0xae, 0x83, 0xaa, 0x3c,
  0x9c, 0x50, 0x40, 0x3e, 0xf4, 0xe8, 0xae, 0xbd, 0xfa, 0x3c, 0x0d, 0xbe,
  0xee, 0xc2, 0x01, 0x3d, 0xfb, 0xee, 0x80, 0xbd, 0xa5, 0x02, 0xd5, 0x3c,
  0x60, 0x1f, 0x46, 0x3e, 0xd9, 0x46, 0xbd, 0x3d, 0xa4, 0xb8, 0x43, 0xbd,
  0xbb, 0xca, 0x4b, 0x3e, 0xeb, 0xab, 0x27, 0xbd, 0x2c, 0xea, 0x57, 0xbd,
  0x99, 0x6d, 0x62, 0x3d, 0x8b, 0x69, 0xf6, 0x3d, 0x48, 0x99, 0x6b, 0x3c,
  0x6f, 0x08, 0x1e, 0x3e, 0x89, 0xfd, 0x3d, 0x3e, 0xb6, 0x1f, 0xf9, 0xbd,
  0xf3, 0x19, 0xf7, 0xbc, 0xf9, 0x5d, 0x5d, 0x3e, 0x87, 0xd4, 0x39, 0xbe,
  0x5c, 0xf5, 0x99, 0xbd, 0xc5, 0x20, 0xf1, 0xbc, 0x72, 0x14, 0x9e, 0xbc,
  0xf2, 0x27, 0xab, 0x3d, 0xa9, 0xf3, 0x4f, 0x3d, 0x29, 0x08, 0x86, 0xbd,
  0x76, 0xc8, 0x1b, 0xbe, 0x20, 0xb1, 0xb2, 0x3d, 0xc8, 0x80, 0xaf, 0x3d,
  0xda, 0xde, 0x94, 0x3d, 0xeb, 0xda, 0x19, 0xbc, 0x87, 0x81, 0x05, 0xbd,
  0x20, 0x43, 0xfb, 0x3c, 0x73, 0xeb, 0x12, 0x3e, 0x4b, 0xfa, 0x1d, 0x3c,
  0xc9, 0xa2, 0xb7, 0x3d, 0xc0, 0x1d, 0x52, 0xbd, 0x78, 0xe4, 0x36, 0x3d,
  0xb4, 0x66, 0x0f, 0x3e, 0xfa, 0xf2, 0x95, 0x3d, 0x69, 0xc5, 0x68, 0xbc,
  0x04, 0x44, 0x85, 0x3d, 0x66, 0x32, 0x8e, 0xbc, 0x4f, 0xeb, 0x3c, 0x3d,
  0x03, 0xf0, 0x1e, 0xbe, 0xaf, 0x27, 0x23, 0x3e, 0x73, 0x71, 0x84, 0x3d,
  0x18, 0x2a, 0x3c, 0x3d, 0xa0, 0x1a, 0x43, 0xbd, 0x87, 0x6d, 0x71, 0x3d,
  0xdc, 0xb9, 0x22, 0x3e, 0xe3, 0x6a, 0x51, 0xbd, 0x38, 0x71, 0x01, 0x3e,
  0x31, 0xdf, 0xc2, 0x3d, 0x3f, 0x81, 0x0d, 0xbd, 0xdc, 0x7f, 0x01, 0x3c,
  0xea, 0xe6, 0x6b, 0xbe, 0xd4, 0x33, 0x24, 0xbe, 0x31, 0xc3, 0x8c, 0xbd,
  0x2c, 0x03, 0x1b, 0x3e, 0x42, 0xdf, 0xb7, 0x3d, 0xd5, 0xec, 0xc1, 0xbc,
  0xa8, 0x5b, 0xc0, 0x3d, 0x9b, 0x3c, 0x23, 0x3e, 0x14, 0x1b, 0x24, 0xbd,
  0x87, 0xa0, 0x22, 0x3e, 0x85, 0x2a, 0xfa, 0xbd, 0x8a, 0x2e, 0x2e, 0x3e,
  0x7b, 0x29, 0xbb, 0xbd, 0x20, 0x1b, 0x55, 0xbd, 0xed, 0xe3, 0x90, 0xbc,
  0x3c, 0xc3, 0x0f, 0x3e, 0x35, 0xf2, 0xd1, 0x3d, 0x2a, 0x2a, 0x0b, 0x3e,
  0xea, 0x45, 0xe1, 0x3d, 0x2b, 0x1a, 0x37, 0xbe, 0x1c, 0x12, 0xd1, 0x3d,
  0x44, 0x0d, 0x02, 0xbe, 0x9d, 0x24, 0x02, 0x3e, 0x29, 0xb3, 0x00, 0x3d,
  0xe8, 0x9d, 0x09, 0x3e, 0x8d, 0x74, 0x02, 0x3d, 0xc2, 0x2e, 0x2d, 0xbd,
  0x1e, 0x04, 0x0c, 0x3e, 0x6e, 0x4c, 0xfd, 0xbd, 0x07, 0x6d, 0x48, 0xbe,
  0x03, 0x30, 0xcb, 0x3d, 0xed, 0x2f, 0x91, 0x3d, 0x7a, 0x13, 0xa7, 0xbc,
  0x1e, 0xf0, 0x2f, 0x3e, 0x2a, 0xbd, 0x5b, 0xbe, 0x2f, 0xaf, 0x24, 0xbc,
  0xf3, 0xe7, 0x26, 0xbe, 0x4c, 0x25, 0x9d, 0xbd, 0xc2, 0xb6, 0x18, 0xbe,
  0x58, 0x4f, 0x18, 0xbe, 0x0c, 0xde, 0x3d, 0xbd, 0x86, 0xa6, 0xd9, 0xbd,
  0x19, 0xa6, 0x79, 0xbd, 0x93, 0xf3, 0x54, 0x3c, 0x1e, 0x5f, 0xb6, 0xbd,
  0x2e, 0x0c, 0x77, 0x3d, 0x80, 0xe2, 0x2c, 0xbe, 0xf4, 0x9e, 0x3f, 0x3e,
  0x91, 0x08, 0xb0, 0xbd, 0x5a, 0x0d, 0xb1, 0xbd, 0x5d, 0x86, 0xf2, 0xbd,
  0x60, 0x2e, 0xbd, 0xbd, 0x82, 0xd1, 0x5f, 0xbe, 0x7e, 0x03, 0xaa, 0x3d,
  0xeb, 0x6c, 0x59, 0x3d, 0x9d, 0xc6, 0xf5, 0x3d, 0xa9, 0x3b, 0xa1, 0x3b,
  0x34, 0xde, 0xca, 0xbc, 0x92, 0x9f, 0x51, 0xbd, 0x68, 0x9e, 0x15, 0x3d,
  0x0b, 0x6a, 0x67, 0xbd, 0x82, 0xb7, 0xde, 0x3c, 0xb4, 0x95, 0x15, 0xbd,
  0xc2, 0x37, 0xec, 0xbc, 0x2d, 0x0f, 0x5d, 0xbe, 0xf3, 0xa0, 0x57, 0x3c,
  0x49, 0x78, 0x68, 0x3d, 0x85, 0x04, 0x7e, 0x3d, 0x0f, 0x39, 0x91, 0xbd,
  0xe2, 0x1f, 0x72, 0xbd, 0xbf, 0x91, 0x3a, 0xbe, 0x28, 0x61, 0x11, 0xbe,
  0x6c, 0xe7, 0x42, 0x3e, 0x89, 0x89, 0xb9, 0x3c, 0x26, 0x65, 0x4f, 0x3e,
  0xe9, 0xa9, 0x70, 0xbe, 0xfa, 0x6c, 0x68, 0xbe, 0xd3, 0xcd, 0x87, 0xbe,
  0x31, 0x86, 0xbd, 0xbc, 0xfb, 0xca, 0x23, 0x3e, 0xe4, 0xac, 0x43, 0x3e,
  0x91, 0xb1, 0x24, 0x3d, 0xe2, 0x31, 0xfd, 0x3d, 0x9b, 0x5a, 0x05, 0x3e,
  0xd8, 0xeb, 0x4b, 0xbd, 0xf7, 0x59, 0x80, 0x3d, 0xf8, 0xba, 0x9f, 0x3d,
  0x7c, 0x46, 0x62, 0xbe, 0x25, 0x0b, 0x40, 0x3c, 0x3e, 0x58, 0x85, 0x3d,
  0xf2, 0xad, 0xc7, 0xbd, 0xa2, 0x37, 0x9a, 0xbe, 0xbc, 0x88, 0xf8, 0xbd,
  0x0c, 0xcc, 0x28, 0x3d, 0xed, 0xc8, 0x36, 0xbe, 0xaa, 0x6f, 0x00, 0x3e,
  0xa2, 0xe1, 0xe6, 0x3c, 0x30, 0x4a, 0x27, 0xbe, 0x1b, 0xde, 0x97, 0x3d,
  0xec, 0x49, 0x50, 0xbe, 0xf5, 0xea, 0x3b, 0xbe, 0x98, 0x8d, 0x02, 0x3e,
  0xbb, 0x22, 0x0d, 0xbd, 0xfc, 0x13, 0x34, 0xbe, 0x0f, 0xcc, 0xa8, 0xbd,
  0x70, 0x7c, 0xde, 0x3d, 0x9e, 0xc1, 0xe1, 0xbd, 0xd4, 0xc3, 0x34, 0x3d,
  0x9c, 0x34, 0xdb, 0xbc, 0x4b, 0x9c, 0x45, 0xbe, 0x1e, 0x0f, 0x57, 0xbe,
  0xe3, 0x87, 0x56, 0xbd, 0x41, 0xb4, 0x6a, 0x3d, 0x8d, 0x3b, 0xe9, 0x3d,
  0x18, 0xe7, 0xcf, 0x3c, 0x2c, 0xb9, 0x40, 0xbe, 0x8b, 0xbe, 0x70, 0xbe,
  0x98, 0xf9, 0x15, 0xbb, 0x45, 0xb0, 0xeb, 0x3d, 0x07, 0xfd, 0xab, 0xbd,
  0x6e, 0x2f, 0xb1, 0xbe, 0x0b, 0xc8, 0x64, 0xbd, 0x13, 0x44, 0x64, 0x3d,
  0xce, 0x2d, 0x19, 0x3e, 0x34, 0x63, 0xf6, 0xbc, 0x8d, 0x94, 0xb0, 0xbe,
  0x7d, 0x88, 0x3d, 0x3d, 0x49, 0x62, 0xb6, 0x3d, 0xff, 0x9c, 0xaa, 0xbe,
  0x6e, 0x5d, 0x0b, 0xbe, 0xf7, 0xb8, 0x5b, 0x3c, 0xa0, 0xec, 0xc8, 0x3d,
  0x0e, 0xe0, 0xeb, 0xbd, 0x95, 0x55, 0x0a, 0xbd, 0x85, 0x3d, 0xca, 0x3d,
  0x55, 0x56, 0x39, 0x3d, 0xbc, 0x17, 0x1c, 0x3d, 0xe6, 0xdc, 0x28, 0x3e,
  0xa2, 0x79, 0xb8, 0x3d, 0x20, 0x6c, 0x8e, 0xbd, 0x49, 0x1c, 0x90, 0xbd,
  0x8e, 0xde, 0xf3, 0xbd, 0xbf, 0xa6, 0xc0, 0x3c, 0x33, 0xe9, 0x0e, 0x3e,
  0x25, 0x19, 0xc5, 0xbc, 0xa2, 0x51, 0x2b, 0x3e, 0xff, 0x8a, 0x2d, 0xbd,
  0x85, 0x21, 0xd2, 0x3d, 0x79, 0x76, 0xae, 0x3d, 0xf7, 0xe7, 0x5a, 0x3e,
  0x77, 0x0d, 0x99, 0x3d, 0xc2, 0xcc, 0x75, 0xbd, 0x8e, 0x8c, 0x9e, 0x3d,
  0xa1, 0xf3, 0x9d, 0x3d, 0x22, 0xb1, 0xdb, 0x3d, 0xd4, 0x1e, 0x7c, 0x3d,
  0x3b, 0x80, 0x47, 0xbd, 0x77, 0x67, 0x17, 0x3e, 0x33, 0x8c, 0x26, 0xbe,
  0x74, 0x1b, 0xdc, 0x3b, 0x30, 0xae, 0x8e, 0x3b, 0x5b, 0x07, 0x87, 0xbd,
  0x66, 0xc7, 0xf9, 0x3b, 0x28, 0x32, 0x6c, 0xbd, 0xa6, 0xe5, 0x73, 0x3d,
  0xce, 0xd1, 0x5f, 0xbe, 0x48, 0x1c, 0xb5, 0xbd, 0x0f, 0x77, 0x3e, 0xbe,
  0xa7, 0xbf, 0x9d, 0xbd, 0xda, 0xa4, 0xa0, 0x3d, 0xf5, 0xfe, 0xe4, 0x3d,
  0x34, 0x29, 0x2d, 0xbe, 0xff, 0xdb, 0x06, 0x3d, 0x48, 0x1a, 0xd2, 0xbd,
  0x89, 0x3c, 0x1e, 0xbe, 0x89, 0xf9, 0xa7, 0xbd, 0xd9, 0x64, 0x9b, 0x3d,
  0x88, 0xb5, 0xdf, 0xbb, 0x9b, 0x5c, 0x99, 0xbd, 0x43, 0x5e, 0x5c, 0x3e,
  0xcd, 0x62, 0xb9, 0x3c, 0x2c, 0x8b, 0x4f, 0x3d, 0x35, 0x2a, 0x31, 0xbe,
  0xf1, 0x34, 0x73, 0x3e, 0x32, 0x49, 0x4c, 0x3d, 0xb4, 0x37, 0x1d, 0xbe,
  0xda, 0x5b, 0xcf, 0xbd, 0x37, 0xe3, 0x31, 0x3d, 0x4c, 0xf5, 0x13, 0x3e,
  0xa4, 0x5d, 0xda, 0xbc, 0x8c, 0x04, 0x03, 0x3c, 0x87, 0x0a, 0x0a, 0x3d,
  0xc0, 0x0f, 0xf6, 0xbc, 0x7d, 0x9f, 0x00, 0x3e, 0x7a, 0x6d, 0x6d, 0xbe,
  0x32, 0x20, 0xd5, 0x3d, 0x4f, 0x5c, 0x99, 0xbd, 0xbe, 0x0b, 0xbd, 0xbd,
  0x72, 0x0f, 0xf0, 0x3d, 0xcc, 0x3f, 0x07, 0xbe, 0x2c, 0x4b, 0x36, 0xbe,
  0x95, 0x6a, 0xa9, 0x3d, 0x69, 0x22, 0x5f, 0xbd, 0x0e, 0xba, 0x00, 0x3d,
  0x5c, 0x70, 0x53, 0x3d, 0x8c, 0x67, 0xd8, 0xbd, 0xa4, 0x04, 0xcc, 0x3d,
  0xd7, 0xdd, 0x0e, 0xbd, 0x0a, 0xf7, 0xce, 0xba, 0x2e, 0x2c, 0x02, 0x3e,
  0x30, 0x9e, 0x49, 0xbc, 0x90, 0x31, 0x47, 0x3d, 0xd0, 0x7a, 0xb5, 0x3d,
  0xf8, 0x20, 0xaa, 0x3d, 0x40, 0xd2, 0x71, 0x3d, 0xe5, 0xcd, 0xa5, 0xbd,
  0xae, 0x49, 0xdb, 0x3c, 0x7b, 0x5f, 0xbe, 0xbd, 0xa8, 0xcc, 0x44, 0x3e,
  0xa3, 0x8e, 0xc0, 0x3d, 0x1f, 0x83, 0xa8, 0x3c, 0x7d, 0x30, 0x57, 0x3e,
  0x43, 0x27, 0x4e, 0x3c, 0x72, 0x61, 0x27, 0x3e, 0x82, 0x96, 0xfc, 0xbd,
  0x63, 0xa9, 0x8f, 0x3d, 0x3b, 0xce, 0x6f, 0xbd, 0x75, 0xb7, 0xb0, 0xbb,
  0xf3, 0x7f, 0x0f, 0x3e, 0xb0, 0x3c, 0x19, 0xbe, 0x96, 0x29, 0xef, 0x3c,
  0x64, 0x69, 0xb0, 0xbc, 0x70, 0x3b, 0x81, 0x3b, 0x47, 0xfd, 0x7a, 0x3e,
  0xb4, 0x05, 0x77, 0x3d, 0xd5, 0x3d, 0xf3, 0xbd, 0x19, 0x2e, 0x8d, 0x3e,
  0x29, 0x88, 0x14, 0x3d, 0x05, 0xea, 0x12, 0x3e, 0xf4, 0x68, 0x2a, 0x3e,
  0xb9, 0x27, 0x08, 0x3d, 0x42, 0xfd, 0x0a, 0x3e, 0x9b, 0x99, 0x12, 0x3e,
  0x88, 0x14, 0xb0, 0x3d, 0x16, 0x39, 0x8c, 0xbd, 0xa5, 0x7b, 0xbd, 0xbc,
  0x37, 0xd0, 0x24, 0x3e, 0x35, 0x48, 0x78, 0x3e, 0x64, 0xaf, 0x08, 0xbe,
  0xd5, 0x9c, 0x51, 0xbd, 0x21, 0xf5, 0xe9, 0xbc, 0x1f, 0xb6, 0x2b, 0x3e,
  0xc0, 0x13, 0xda, 0x3a, 0x50, 0x04, 0x66, 0x3e, 0xc6, 0x36, 0xfb, 0x3d,
  0x45, 0xfc, 0xba, 0xbd, 0x1f, 0xce, 0xf9, 0xbd, 0x2c, 0xb7, 0xfd, 0x3d,
  0x48, 0x87, 0xb1, 0x3c, 0x1e, 0x7c, 0x7c, 0x3d, 0x72, 0x59, 0x88, 0xbd,
  0xed, 0x70, 0x13, 0x3e, 0xca, 0xb7, 0x84, 0x3e, 0x80, 0x27, 0x6a, 0x3d,
  0x83, 0x95, 0x4f, 0xbc, 0xc4, 0x17, 0xa9, 0x3e, 0x31, 0xfc, 0x04, 0x3c,
  0x53, 0xc2, 0x8b, 0x3b, 0x22, 0x2b, 0x66, 0x3e, 0x92, 0x36, 0x7e, 0x3e,
  0xcc, 0x7f, 0xcf, 0x3d, 0xa7, 0xff, 0x87, 0x3d, 0x58, 0x96, 0x88, 0x3d,
  0xb7, 0xda, 0x6b, 0x3e, 0xfd, 0xee, 0x83, 0x3e, 0x0d, 0xf6, 0xe6, 0x3d,
  0xce, 0xf4, 0x98, 0x3e, 0x76, 0xc3, 0x89, 0xbd, 0x8c, 0xe7, 0xd3, 0xbd,
  0x85, 0x9f, 0x3e, 0x3e, 0xee, 0x6d, 0xf1, 0x3d, 0xfb, 0x40, 0xf5, 0x3d,
  0x36, 0xeb, 0x4a, 0x3e, 0x41, 0xfe, 0x84, 0x3e, 0xaf, 0xd0, 0x80, 0x3e,
  0xd8, 0x36, 0xbc, 0x3d, 0x6f, 0x95, 0x69, 0x3d, 0x46, 0x3a, 0x31, 0x3e,
  0xdc, 0x96, 0xc3, 0x3e, 0xcc, 0x8c, 0xea, 0x3c, 0x47, 0x89, 0x25, 0x3d,
  0xa8, 0x58, 0xac, 0x3e, 0x93, 0x21, 0xa8, 0x3d, 0xac, 0xee, 0xec, 0x3e,
  0x2b, 0xad, 0x66, 0x3e, 0xa3, 0x78, 0x25, 0xbd, 0x71, 0x38, 0xd1, 0xbe,
  0x19, 0x0f, 0xae, 0x3e, 0xb4, 0x9d, 0xcc, 0xbe, 0x94, 0x02, 0x32, 0x3f,
  0x6c, 0x50, 0x1c, 0x3f, 0x9a, 0x39, 0x46, 0x3f, 0x26, 0x31, 0x39, 0x3f,
  0x94, 0x86, 0x8f, 0x3d, 0x02, 0xc4, 0x55, 0xbe, 0x31, 0x48, 0x70, 0x3e,
  0xed, 0x38, 0x35, 0x3e, 0xb1, 0x3c, 0x9f, 0xbe, 0x36, 0x4a, 0x76, 0x3f,
  0xbc, 0x60, 0x9b, 0xbc, 0xe4, 0x9a, 0xb8, 0xbc, 0x10, 0x57, 0x42, 0x3f,
  0x36, 0x3e, 0xac, 0x3e, 0x53, 0xe4, 0xe7, 0x3e, 0x6f, 0x49, 0x0f, 0x3f,
  0x15, 0x3d, 0x14, 0x3f, 0x46, 0xf1, 0xb0, 0x3e, 0xa2, 0xa3, 0xc9, 0x3e,
  0x43, 0x02, 0x04, 0x3f, 0x7f, 0xb6, 0x7f, 0x3e, 0x07, 0xb9, 0x39, 0x3f,
  0x50, 0xe3, 0x99, 0x3e, 0xa1, 0x59, 0xd9, 0x3e, 0x8a, 0x12, 0x54, 0x3f,
  0x2a, 0x85, 0x8d, 0x3e, 0x36, 0x99, 0x89, 0x3d, 0x27, 0xa6, 0x25, 0x3e,
  0x14, 0xf0, 0x14, 0x3e, 0x93, 0xb7, 0x09, 0x3e, 0x37, 0x64, 0x59, 0x3d,
  0xbc, 0x5c, 0x65, 0x3e, 0xf0, 0x4c, 0xca, 0xbd, 0xea, 0x62, 0x70, 0xbd,
  0x38, 0xee, 0x01, 0xbe, 0x8c, 0x69, 0x4f, 0x3e, 0xf7, 0xaa, 0xa0, 0xbd,
  0x51, 0x10, 0x97, 0xbd, 0x21, 0xcd, 0x44, 0x3e, 0x5c, 0xa0, 0x9f, 0xbc,
  0x43, 0xf1, 0x88, 0xbc, 0x2c, 0xdf, 0x47, 0x3d, 0x99, 0x10, 0xdc, 0x3d,
  0x46, 0x92, 0x8d, 0x3d, 0x26, 0xe5, 0x20, 0x3e, 0x82, 0xe2, 0xaa, 0x3c,
  0xd5, 0xf2, 0xc9, 0xbd, 0xc8, 0xe8, 0xc4, 0xbd, 0x35, 0xd7, 0x41, 0x3e,
  0x63, 0x21, 0x24, 0x3e, 0x10, 0x31, 0xfe, 0x3d, 0x79, 0x6a, 0x0b, 0xbe,
  0x9d, 0xd5, 0x98, 0x3e, 0xe6, 0x1a, 0x08, 0xbe, 0x1f, 0xe7, 0x67, 0x3e,
  0xcd, 0xa8, 0x40, 0x3c, 0xef, 0xd4, 0x29, 0x3e, 0x16, 0x70, 0x88, 0x3e,
  0x02, 0x48, 0xf3, 0xbc, 0xe1, 0xc6, 0x5c, 0xbd, 0xae, 0x21, 0x21, 0xbe,
  0x0e, 0xff, 0xec, 0x3d, 0xb3, 0x90, 0x28, 0xbd, 0xb4, 0x5b, 0xbe, 0xbd,
  0x71, 0xf2, 0x5b, 0xbe, 0x1f, 0x5a, 0x24, 0x3d, 0x8b, 0x15, 0x92, 0x3d,
  0xe0, 0xf2, 0x41, 0xbd, 0xde, 0x27, 0xf5, 0xbc, 0x87, 0x74, 0xff, 0x3d,
  0x60, 0x4e, 0x38, 0x3d, 0xcb, 0xe4, 0x5c, 0x3e, 0xa7, 0x1c, 0x01, 0x3e,
  0x1a, 0xc8, 0x97, 0xbc, 0x0d, 0x60, 0x84, 0x3e, 0xb7, 0x9f, 0x8f, 0x3d,
  0xa2, 0x30, 0x1a, 0x3d, 0xe7, 0x61, 0x50, 0xbd, 0xdb, 0xc2, 0xb0, 0xbd,
  0x1d, 0x0f, 0x9f, 0x3c, 0x7d, 0x1d, 0x78, 0x3e, 0x8c, 0x1b, 0x6e, 0xbc,
  0xa4, 0xcb, 0xa0, 0x3d, 0x55, 0x0e, 0x05, 0x3e, 0xd6, 0x2f, 0x4c, 0x3e,
  0xa8, 0x1b, 0x15, 0x3e, 0xcd, 0xd2, 0xcd, 0x3d, 0x09, 0xac, 0x4a, 0xbe,
  0x9b, 0xa0, 0xf4, 0xbc, 0xaa, 0x3f, 0x84, 0x3d, 0xfa, 0xba, 0x44, 0xbe,
  0x1c, 0xe6, 0x85, 0xbc, 0x3f, 0x88, 0x88, 0x3d, 0x58, 0xef, 0x56, 0xbd,
  0xa6, 0xfb, 0x8a, 0x3e, 0x8d, 0x6d, 0x2b, 0x3e, 0x8e, 0x03, 0xcf, 0xbd,
  0x0d, 0x69, 0x77, 0x3e, 0xaa, 0x50, 0xc4, 0xbd, 0xc1, 0x73, 0x78, 0x3d,
  0xe1, 0x18, 0x73, 0x3c, 0x82, 0x44, 0x7b, 0xbd, 0x74, 0x18, 0x13, 0x3d,
  0x25, 0xf7, 0x2d, 0x3d, 0x61, 0x8f, 0x06, 0x3e, 0xea, 0x9c, 0x0d, 0x3e,
  0x30, 0xfd, 0x01, 0x3e, 0xcb, 0xea, 0x14, 0x3e, 0xd9, 0x6b, 0x18, 0x3e,
  0xb1, 0xb2, 0x0e, 0x3e, 0x67, 0x5d, 0xd1, 0x3d, 0xed, 0x74, 0x24, 0xbc,
  0x08, 0x52, 0xdb, 0x3d, 0xed, 0xf2, 0x92, 0x3e, 0x8b, 0x98, 0xd0, 0x3d,
  0x46, 0x42, 0x55, 0x3d, 0xbf, 0x04, 0x65, 0x3d, 0x28, 0x0f, 0xcb, 0xbd,
  0xca, 0x3a, 0x91, 0x3c, 0x83, 0x61, 0x14, 0xbc, 0xb1, 0xf0, 0x27, 0x3e,
  0xc2, 0xe2, 0x29, 0x3d, 0x39, 0x50, 0xea, 0x3d, 0xbe, 0xd6, 0xb0, 0x3d,
  0x70, 0x0d, 0x25, 0xbe, 0x65, 0x41, 0x76, 0xbc, 0x59, 0x74, 0x65, 0x3e,
  0xd4, 0xd2, 0xf2, 0xbd, 0xad, 0xb7, 0xb5, 0x3c, 0xa1, 0x27, 0x6d, 0x3e,
  0xd7, 0xe5, 0x8a, 0xbd, 0xfa, 0x3d, 0xa0, 0x3d, 0x79, 0xc0, 0xfe, 0x3d,
  0x3c, 0xe8, 0xaf, 0xbc, 0x27, 0x72, 0x6b, 0x3e, 0xae, 0xea, 0xbf, 0x3d,
  0xf5, 0x38, 0xe2, 0x3b, 0x70, 0x8f, 0x0d, 0x3e, 0x17, 0xbe, 0x89, 0x3d,
  0xe9, 0x52, 0x29, 0xbe, 0xb1, 0x59, 0x0f, 0x3e, 0x0e, 0x78, 0x2d, 0x3e,
  0xe0, 0xf1, 0x4c, 0xbe, 0x5e, 0x33, 0x19, 0xbd, 0x48, 0xc4, 0x61, 0x3e,
  0x23, 0xfa, 0x39, 0x3e, 0x70, 0x5d, 0x6c, 0x3e, 0x0b, 0x65, 0xed, 0x3d,
  0xa0, 0x7f, 0x4f, 0xbc, 0x93, 0x1d, 0xaf, 0xbd, 0xb1, 0x7c, 0xda, 0x3d,
  0x86, 0x76, 0xe8, 0x3d, 0x06, 0xe4, 0x38, 0x3e, 0x37, 0x2e, 0xf8, 0x3c,
  0xd7, 0xd7, 0x09, 0x3e, 0xf6, 0x5e, 0xa2, 0x3e, 0xff, 0x31, 0x20, 0xbd,
  0xdc, 0x0d, 0xad, 0xbd, 0xee, 0x67, 0x9d, 0x3e, 0xcc, 0x97, 0x05, 0xbe,
  0x78, 0x38, 0x8a, 0xbd, 0xea, 0x3c, 0xc4, 0x3e, 0xf1, 0x6d, 0x5f, 0x3e,
  0x08, 0x4f, 0xe5, 0x3d, 0xf5, 0x49, 0x4b, 0xbd, 0x49, 0x8a, 0x46, 0xbe,
  0x08, 0xc0, 0x41, 0x3d, 0xea, 0x77, 0x60, 0x3e, 0x6a, 0xca, 0x35, 0xbe,
  0x16, 0xe1, 0xa1, 0x3e, 0x26, 0x79, 0xf8, 0xb9, 0x89, 0x1d, 0x46, 0x3e,
  0xac, 0x21, 0xc1, 0x3e, 0xb8, 0x85, 0x1b, 0x3e, 0x33, 0xf3, 0xe1, 0xbd,
  0x92, 0x45, 0x77, 0x3e, 0x8e, 0x8c, 0xb0, 0x3e, 0x75, 0x47, 0xb6, 0x3e,
  0x14, 0xa9, 0xd7, 0x3d, 0xbb, 0x97, 0x20, 0x3e, 0x77, 0xe0, 0x85, 0x3d,
  0xae, 0x91, 0x12, 0x3e, 0x74, 0x16, 0x3d, 0x3e, 0x9b, 0x2b, 0xdc, 0xbd,
  0x7d, 0x4f, 0x00, 0x3e, 0x05, 0xaf, 0x2d, 0xbc, 0xd7, 0x0b, 0x1c, 0x3e,
  0x65, 0xcd, 0xae, 0x3e, 0xc7, 0xdc, 0x39, 0xbd, 0x05, 0xc0, 0xde, 0xbe,
  0xf8, 0x8d, 0x83, 0x3e, 0x42, 0xe6, 0xe8, 0xbe, 0xdf, 0xca, 0x08, 0x3f,
  0xe2, 0x94, 0x2a, 0x3f, 0x7a, 0x10, 0xff, 0x3e, 0x67, 0x6d, 0x26, 0x3f,
  0x88, 0x9c, 0x4c, 0x3c, 0x90, 0xfc, 0xa9, 0xbe, 0x5c, 0x38, 0xd1, 0x3e,
  0xb8, 0x53, 0x5e, 0x3e, 0x9e, 0x0c, 0xfd, 0xbe, 0x5e, 0x5f, 0x2f, 0x3f,
  0xa5, 0xcb, 0x6d, 0xbd, 0x09, 0x5c, 0x38, 0xbd, 0x21, 0x55, 0x2e, 0x3f,
  0x6d, 0x1a, 0xde, 0x3e, 0x5e, 0xb1, 0x81, 0x3e, 0xd1, 0x27, 0xd4, 0x3e,
  0x08, 0x89, 0x3b, 0x3f, 0x5a, 0x7a, 0x24, 0x3f, 0xc2, 0xb9, 0xd9, 0x3e,
  0xf0, 0xc6, 0x97, 0x3e, 0x59, 0x7d, 0x59, 0x3e, 0xb2, 0x00, 0x57, 0x3f,
  0x7f, 0x79, 0xe1, 0x3e, 0xf4, 0xbd, 0x65, 0x3e, 0x7b, 0x36, 0x29, 0x3f,
  0x3f, 0x91, 0xb0, 0x3e, 0xea, 0xfe, 0xff, 0xff, 0x04, 0x00, 0x00, 0x00,
  0x04, 0x00, 0x00, 0x00, 0xfd, 0xff, 0xff, 0xff, 0xfa, 0xfe, 0xff, 0xff,
  0x04, 0x00, 0x00, 0x00, 0x18, 0x00, 0x00, 0x00, 0x00, 0x00, 0x00, 0x00,
  0x00, 0x00, 0x00, 0x00, 0x01, 0x00, 0x00, 0x00, 0x00, 0x00, 0x00, 0x00,
  0x00, 0x00, 0x00, 0x00, 0x00, 0x00, 0x00, 0x00, 0x1e, 0xff, 0xff, 0xff,
  0x04, 0x00, 0x00, 0x00, 0x08, 0x00, 0x00, 0x00, 0xff, 0xff, 0xff, 0xff,
  0xc0, 0x00, 0x00, 0x00, 0x32, 0xff, 0xff, 0xff, 0x04, 0x00, 0x00, 0x00,
  0x80, 0x00, 0x00, 0x00, 0xd7, 0x59, 0x17, 0x3f, 0xdd, 0xb2, 0xd8, 0x3e,
  0x37, 0x01, 0xdb, 0x3e, 0x24, 0x57, 0x04, 0x3f, 0x0a, 0xa0, 0xa2, 0x3e,
  0x89, 0x5e, 0xaa, 0x3d, 0x90, 0x9b, 0x59, 0x3f, 0x63, 0x5f, 0xda, 0x3e,
  0x57, 0x08, 0x04, 0x3f, 0xf5, 0x79, 0x06, 0x3f, 0xe6, 0xc3, 0xe3, 0x3e,
  0x96, 0x48, 0x1e, 0x3e, 0xfe, 0x06, 0xa3, 0x3e, 0x6c, 0xb4, 0xdd, 0x3e,
  0xc1, 0x0a, 0x11, 0x3e, 0x07, 0xc1, 0x01, 0x3f, 0x74, 0x0b, 0x99, 0x3e,
  0xca, 0x82, 0x92, 0x3e, 0x8f, 0xec, 0xde, 0x3e, 0x20, 0xcb, 0x8f, 0x3e,
  0xb0, 0x84, 0x0d, 0x3f, 0xb0, 0x5e, 0xc0, 0x3e, 0x67, 0x3a, 0xae, 0x3e,
  0x3a, 0xd6, 0xef, 0x3e, 0xe4, 0x04, 0x95, 0x3e, 0x8f, 0xa6, 0x08, 0x3f,
  0x7d, 0xc2, 0x9f, 0x3e, 0x38, 0xb9, 0xbe, 0x3e, 0x34, 0xf7, 0xee, 0x3e,
  0x3a, 0xa2, 0x30, 0x3e, 0xfc, 0x35, 0x00, 0x3f, 0x16, 0x07, 0xb1, 0x3e,
  0xbe, 0xff, 0xff, 0xff, 0x04, 0x00, 0x00, 0x00, 0x14, 0x00, 0x00, 0x00,
  0x1b, 0x9b, 0x48, 0x3e, 0x35, 0x56, 0x2a, 0x3e, 0xaf, 0x73, 0xee, 0x3c,
  0xf4, 0x34, 0x30, 0x3e, 0x9c, 0x3e, 0x32, 0x3e, 0xde, 0xff, 0xff, 0xff,
  0x04, 0x00, 0x00, 0x00, 0x14, 0x00, 0x00, 0x00, 0xe3, 0xd9, 0x56, 0x3e,
  0xc3, 0x92, 0x04, 0x3e, 0x31, 0x86, 0x6c, 0x3c, 0x26, 0xcd, 0xb4, 0xbb,
  0x6b, 0x70, 0x1a, 0x3e, 0x00, 0x00, 0x06, 0x00, 0x08, 0x00, 0x04, 0x00,
  0x06, 0x00, 0x00, 0x00, 0x04, 0x00, 0x00, 0x00, 0x04, 0x00, 0x00, 0x00,
  0xc4, 0x59, 0x11, 0x3e, 0x74, 0xf6, 0xff, 0xff, 0x78, 0xf6, 0xff, 0xff,
  0x0f, 0x00, 0x00, 0x00, 0x4d, 0x4c, 0x49, 0x52, 0x20, 0x43, 0x6f, 0x6e,
  0x76, 0x65, 0x72, 0x74, 0x65, 0x64, 0x2e, 0x00, 0x01, 0x00, 0x00, 0x00,
  0x14, 0x00, 0x00, 0x00, 0x00, 0x00, 0x0e, 0x00, 0x18, 0x00, 0x14, 0x00,
  0x10, 0x00, 0x0c, 0x00, 0x08, 0x00, 0x04, 0x00, 0x0e, 0x00, 0x00, 0x00,
  0x14, 0x00, 0x00, 0x00, 0x1c, 0x00, 0x00, 0x00, 0xe0, 0x01, 0x00, 0x00,
  0xe4, 0x01, 0x00, 0x00, 0xe8, 0x01, 0x00, 0x00, 0x04, 0x00, 0x00, 0x00,
  0x6d, 0x61, 0x69, 0x6e, 0x00, 0x00, 0x00, 0x00, 0x07, 0x00, 0x00, 0x00,
  0x98, 0x01, 0x00, 0x00, 0x54, 0x01, 0x00, 0x00, 0xf0, 0x00, 0x00, 0x00,
  0xc8, 0x00, 0x00, 0x00, 0x78, 0x00, 0x00, 0x00, 0x3c, 0x00, 0x00, 0x00,
  0x04, 0x00, 0x00, 0x00, 0xd2, 0xfe, 0xff, 0xff, 0x14, 0x00, 0x00, 0x00,
  0x00, 0x00, 0x00, 0x08, 0x10, 0x00, 0x00, 0x00, 0x14, 0x00, 0x00, 0x00,
  0x04, 0x00, 0x00, 0x00, 0x04, 0xf7, 0xff, 0xff, 0x01, 0x00, 0x00, 0x00,
  0x12, 0x00, 0x00, 0x00, 0x03, 0x00, 0x00, 0x00, 0x11, 0x00, 0x00, 0x00,
  0x0a, 0x00, 0x00, 0x00, 0x01, 0x00, 0x00, 0x00, 0x06, 0xff, 0xff, 0xff,
  0x14, 0x00, 0x00, 0x00, 0x00, 0x00, 0x00, 0x08, 0x14, 0x00, 0x00, 0x00,
  0x18, 0x00, 0x00, 0x00, 0x04, 0x00, 0x00, 0x00, 0xc6, 0xff, 0xff, 0xff,
  0x00, 0x00, 0x00, 0x01, 0x01, 0x00, 0x00, 0x00, 0x11, 0x00, 0x00, 0x00,
  0x03, 0x00, 0x00, 0x00, 0x10, 0x00, 0x00, 0x00, 0x09, 0x00, 0x00, 0x00,
  0x02, 0x00, 0x00, 0x00, 0x3e, 0xff, 0xff, 0xff, 0x1c, 0x00, 0x00, 0x00,
  0x00, 0x00, 0x00, 0x08, 0x1c, 0x00, 0x00, 0x00, 0x20, 0x00, 0x00, 0x00,
  0x04, 0x00, 0x00, 0x00, 0x00, 0x00, 0x06, 0x00, 0x08, 0x00, 0x07, 0x00,
  0x06, 0x00, 0x00, 0x00, 0x00, 0x00, 0x00, 0x01, 0x01, 0x00, 0x00, 0x00,
  0x10, 0x00, 0x00, 0x00, 0x03, 0x00, 0x00, 0x00, 0x0f, 0x00, 0x00, 0x00,
  0x08, 0x00, 0x00, 0x00, 0x03, 0x00, 0x00, 0x00, 0x00, 0x00, 0x0a, 0x00,
  0x10, 0x00, 0x0c, 0x00, 0x08, 0x00, 0x04, 0x00, 0x0a, 0x00, 0x00, 0x00,
  0x0c, 0x00, 0x00, 0x00, 0x10, 0x00, 0x00, 0x00, 0x03, 0x00, 0x00, 0x00,
  0x01, 0x00, 0x00, 0x00, 0x0f, 0x00, 0x00, 0x00, 0x02, 0x00, 0x00, 0x00,
  0x0e, 0x00, 0x00, 0x00, 0x05, 0x00, 0x00, 0x00, 0xae, 0xff, 0xff, 0xff,
  0x20, 0x00, 0x00, 0x00, 0x00, 0x00, 0x00, 0x01, 0x2c, 0x00, 0x00, 0x00,
  0x30, 0x00, 0x00, 0x00, 0x02, 0x00, 0x00, 0x00, 0x0c, 0x00, 0x14, 0x00,
  0x13, 0x00, 0x0c, 0x00, 0x08, 0x00, 0x07, 0x00, 0x0c, 0x00, 0x00, 0x00,
  0x00, 0x00, 0x00, 0x01, 0x01, 0x00, 0x00, 0x00, 0x01, 0x00, 0x00, 0x00,
  0x00, 0x00, 0x00, 0x01, 0x01, 0x00, 0x00, 0x00, 0x0e, 0x00, 0x00, 0x00,
  0x03, 0x00, 0x00, 0x00, 0x0d, 0x00, 0x00, 0x00, 0x0b, 0x00, 0x00, 0x00,
  0x04, 0x00, 0x00, 0x00, 0x00, 0x00, 0x0e, 0x00, 0x18, 0x00, 0x14, 0x00,
  0x10, 0x00, 0x0c, 0x00, 0x0b, 0x00, 0x04, 0x00, 0x0e, 0x00, 0x00, 0x00,
  0x14, 0x00, 0x00, 0x00, 0x00, 0x00, 0x00, 0x34, 0x10, 0x00, 0x00, 0x00,
  0x14, 0x00, 0x00, 0x00, 0x01, 0x00, 0x00, 0x00, 0x40, 0xf8, 0xff, 0xff,
  0x01, 0x00, 0x00, 0x00, 0x0d, 0x00, 0x00, 0x00, 0x02, 0x00, 0x00, 0x00,
  0x0c, 0x00, 0x00, 0x00, 0x07, 0x00, 0x00, 0x00, 0x00, 0x00, 0x0e, 0x00,
  0x14, 0x00, 0x00, 0x00, 0x10, 0x00, 0x0c, 0x00, 0x0b, 0x00, 0x04, 0x00,
  0x0e, 0x00, 0x00, 0x00, 0x10, 0x00, 0x00, 0x00, 0x00, 0x00, 0x00, 0x16,
  0x0c, 0x00, 0x00, 0x00, 0x10, 0x00, 0x00, 0x00, 0x7c, 0xf8, 0xff, 0xff,
  0x01, 0x00, 0x00, 0x00, 0x0c, 0x00, 0x00, 0x00, 0x02, 0x00, 0x00, 0x00,
  0x00, 0x00, 0x00, 0x00, 0x06, 0x00, 0x00, 0x00, 0x01, 0x00, 0x00, 0x00,
  0x12, 0x00, 0x00, 0x00, 0x01, 0x00, 0x00, 0x00, 0x00, 0x00, 0x00, 0x00,
  0x13, 0x00, 0x00, 0x00, 0x30, 0x07, 0x00, 0x00, 0xc8, 0x06, 0x00, 0x00,
  0x64, 0x06, 0x00, 0x00, 0x10, 0x06, 0x00, 0x00, 0xbc, 0x05, 0x00, 0x00,
  0x74, 0x05, 0x00, 0x00, 0x10, 0x05, 0x00, 0x00, 0xbc, 0x04, 0x00, 0x00,
  0x74, 0x04, 0x00, 0x00, 0x2c, 0x04, 0x00, 0x00, 0xe4, 0x03, 0x00, 0x00,
  0x94, 0x03, 0x00, 0x00, 0x38, 0x03, 0x00, 0x00, 0xc4, 0x02, 0x00, 0x00,
  0xd8, 0x01, 0x00, 0x00, 0x7c, 0x01, 0x00, 0x00, 0xec, 0x00, 0x00, 0x00,
  0x5c, 0x00, 0x00, 0x00, 0x04, 0x00, 0x00, 0x00, 0x30, 0xf9, 0xff, 0xff,
  0x14, 0x00, 0x00, 0x00, 0x1c, 0x00, 0x00, 0x00, 0x1c, 0x00, 0x00, 0x00,
  0x13, 0x00, 0x00, 0x00, 0x34, 0x00, 0x00, 0x00, 0x02, 0x00, 0x00, 0x00,
  0xff, 0xff, 0xff, 0xff, 0x01, 0x00, 0x00, 0x00, 0x18, 0xf9, 0xff, 0xff,
  0x19, 0x00, 0x00, 0x00, 0x53, 0x74, 0x61, 0x74, 0x65, 0x66, 0x75, 0x6c,
  0x50, 0x61, 0x72, 0x74, 0x69, 0x74, 0x69, 0x6f, 0x6e, 0x65, 0x64, 0x43,
  0x61, 0x6c, 0x6c, 0x3a, 0x30, 0x00, 0x00, 0x00, 0x02, 0x00, 0x00, 0x00,
  0x01, 0x00, 0x00, 0x00, 0x01, 0x00, 0x00, 0x00, 0x84, 0xf9, 0xff, 0xff,
  0x14, 0x00, 0x00, 0x00, 0x1c, 0x00, 0x00, 0x00, 0x1c, 0x00, 0x00, 0x00,
  0x12, 0x00, 0x00, 0x00, 0x6c, 0x00, 0x00, 0x00, 0x02, 0x00, 0x00, 0x00,
  0xff, 0xff, 0xff, 0xff, 0x05, 0x00, 0x00, 0x00, 0x6c, 0xf9, 0xff, 0xff,
  0x52, 0x00, 0x00, 0x00, 0x73, 0x65, 0x71, 0x75, 0x65, 0x6e, 0x74, 0x69,
  0x61, 0x6c, 0x5f, 0x31, 0x2f, 0x64, 0x65, 0x6e, 0x73, 0x65, 0x5f, 0x32,
  0x2f, 0x4d, 0x61, 0x74, 0x4d, 0x75, 0x6c, 0x3b, 0x73, 0x65, 0x71, 0x75,
  0x65, 0x6e, 0x74, 0x69, 0x61, 0x6c, 0x5f, 0x31, 0x2f, 0x64, 0x65, 0x6e,
  0x73, 0x65, 0x5f, 0x32, 0x2f, 0x52, 0x65, 0x6c, 0x75, 0x3b, 0x73, 0x65,
  0x71, 0x75, 0x65, 0x6e, 0x74, 0x69, 0x61, 0x6c, 0x5f, 0x31, 0x2f, 0x64,
  0x65, 0x6e, 0x73, 0x65, 0x5f, 0x32, 0x2f, 0x42, 0x69, 0x61, 0x73, 0x41,
  0x64, 0x64, 0x00, 0x00, 0x02, 0x00, 0x00, 0x00, 0x01, 0x00, 0x00, 0x00,
  0x05, 0x00, 0x00, 0x00, 0x10, 0xfa, 0xff, 0xff, 0x14, 0x00, 0x00, 0x00,
  0x1c, 0x00, 0x00, 0x00, 0x1c, 0x00, 0x00, 0x00, 0x11, 0x00, 0x00, 0x00,
  0x6c, 0x00, 0x00, 0x00, 0x02, 0x00, 0x00, 0x00, 0xff, 0xff, 0xff, 0xff,
  0x05, 0x00, 0x00, 0x00, 0xf8, 0xf9, 0xff, 0xff, 0x52, 0x00, 0x00, 0x00,
  0x73, 0x65, 0x71, 0x75, 0x65, 0x6e, 0x74, 0x69, 0x61, 0x6c, 0x5f, 0x31,
  0x2f, 0x64, 0x65, 0x6e, 0x73, 0x65, 0x5f, 0x31, 0x2f, 0x4d, 0x61, 0x74,
  0x4d, 0x75, 0x6c, 0x3b, 0x73, 0x65, 0x71, 0x75, 0x65, 0x6e, 0x74, 0x69,
  0x61, 0x6c, 0x5f, 0x31, 0x2f, 0x64, 0x65, 0x6e, 0x73, 0x65, 0x5f, 0x31,
  0x2f, 0x52, 0x65, 0x6c, 0x75, 0x3b, 0x73, 0x65, 0x71, 0x75, 0x65, 0x6e,
  0x74, 0x69, 0x61, 0x6c, 0x5f, 0x31, 0x2f, 0x64, 0x65, 0x6e, 0x73, 0x65,
  0x5f, 0x31, 0x2f, 0x42, 0x69, 0x61, 0x73, 0x41, 0x64, 0x64, 0x00, 0x00,
  0x02, 0x00, 0x00, 0x00, 0x01, 0x00, 0x00, 0x00, 0x05, 0x00, 0x00, 0x00,
  0x9c, 0xfa, 0xff, 0xff, 0x14, 0x00, 0x00, 0x00, 0x1c, 0x00, 0x00, 0x00,
  0x1c, 0x00, 0x00, 0x00, 0x10, 0x00, 0x00, 0x00, 0x38, 0x00, 0x00, 0x00,
  0x02, 0x00, 0x00, 0x00, 0xff, 0xff, 0xff, 0xff, 0xc0, 0x00, 0x00, 0x00,
  0x84, 0xfa, 0xff, 0xff, 0x1c, 0x00, 0x00, 0x00, 0x73, 0x65, 0x71, 0x75,
  0x65, 0x6e, 0x74, 0x69, 0x61, 0x6c, 0x5f, 0x31, 0x2f, 0x66, 0x6c, 0x61,
  0x74, 0x74, 0x65, 0x6e, 0x2f, 0x52, 0x65, 0x73, 0x68, 0x61, 0x70, 0x65,
  0x00, 0x00, 0x00, 0x00, 0x02, 0x00, 0x00, 0x00, 0x01, 0x00, 0x00, 0x00,
  0xc0, 0x00, 0x00, 0x00, 0xf4, 0xfa, 0xff, 0xff, 0x14, 0x00, 0x00, 0x00,
  0x24, 0x00, 0x00, 0x00, 0x24, 0x00, 0x00, 0x00, 0x0f, 0x00, 0x00, 0x00,
  0xc0, 0x00, 0x00, 0x00, 0x04, 0x00, 0x00, 0x00, 0xff, 0xff, 0xff, 0xff,
  0x01, 0x00, 0x00, 0x00, 0x06, 0x00, 0x00, 0x00, 0x20, 0x00, 0x00, 0x00,
  0xe4, 0xfa, 0xff, 0xff, 0x9d, 0x00, 0x00, 0x00, 0x73, 0x65, 0x71, 0x75,
  0x65, 0x6e, 0x74, 0x69, 0x61, 0x6c, 0x5f, 0x31, 0x2f, 0x63, 0x6f, 0x6e,
  0x76, 0x31, 0x64, 0x2f, 0x52, 0x65, 0x6c, 0x75, 0x3b, 0x73, 0x65, 0x71,
  0x75, 0x65, 0x6e, 0x74, 0x69, 0x61, 0x6c, 0x5f, 0x31, 0x2f, 0x63, 0x6f,
  0x6e, 0x76, 0x31, 0x64, 0x2f, 0x42, 0x69, 0x61, 0x73, 0x41, 0x64, 0x64,
  0x3b, 0x73, 0x65, 0x71, 0x75, 0x65, 0x6e, 0x74, 0x69, 0x61, 0x6c, 0x5f,
  0x31, 0x2f, 0x63, 0x6f, 0x6e, 0x76, 0x31, 0x64, 0x2f, 0x43, 0x6f, 0x6e,
  0x76, 0x31, 0x44, 0x2f, 0x53, 0x71, 0x75, 0x65, 0x65, 0x7a, 0x65, 0x3b,
  0x73, 0x65, 0x71, 0x75, 0x65, 0x6e, 0x74, 0x69, 0x61, 0x6c, 0x5f, 0x31,
  0x2f, 0x63, 0x6f, 0x6e, 0x76, 0x31, 0x64, 0x2f, 0x42, 0x69, 0x61, 0x73,
  0x41, 0x64, 0x64, 0x2f, 0x52, 0x65, 0x61, 0x64, 0x56, 0x61, 0x72, 0x69,
  0x61, 0x62, 0x6c, 0x65, 0x4f, 0x70, 0x3b, 0x73, 0x65, 0x71, 0x75, 0x65,
  0x6e, 0x74, 0x69, 0x61, 0x6c, 0x5f, 0x31, 0x2f, 0x63, 0x6f, 0x6e, 0x76,
  0x31, 0x64, 0x2f, 0x43, 0x6f, 0x6e, 0x76, 0x31, 0x44, 0x00, 0x00, 0x00,
  0x04, 0x00, 0x00, 0x00, 0x01, 0x00, 0x00, 0x00, 0x01, 0x00, 0x00, 0x00,
  0x06, 0x00, 0x00, 0x00, 0x20, 0x00, 0x00, 0x00, 0xdc, 0xfb, 0xff, 0xff,
  0x14, 0x00, 0x00, 0x00, 0x24, 0x00, 0x00, 0x00, 0x24, 0x00, 0x00, 0x00,
  0x0e, 0x00, 0x00, 0x00, 0x48, 0x00, 0x00, 0x00, 0x04, 0x00, 0x00, 0x00,
  0xff, 0xff, 0xff, 0xff, 0x01, 0x00, 0x00, 0x00, 0x07, 0x00, 0x00, 0x00,
  0x03, 0x00, 0x00, 0x00, 0xcc, 0xfb, 0xff, 0xff, 0x25, 0x00, 0x00, 0x00,
  0x73, 0x65, 0x71, 0x75, 0x65, 0x6e, 0x74, 0x69, 0x61, 0x6c, 0x5f, 0x31,
  0x2f, 0x63, 0x6f, 0x6e, 0x76, 0x31, 0x64, 0x2f, 0x43, 0x6f, 0x6e, 0x76,
  0x31, 0x44, 0x2f, 0x45, 0x78, 0x70, 0x61, 0x6e, 0x64, 0x44, 0x69, 0x6d,
  0x73, 0x00, 0x00, 0x00, 0x04, 0x00, 0x00, 0x00, 0x01, 0x00, 0x00, 0x00,
  0x01, 0x00, 0x00, 0x00, 0x07, 0x00, 0x00, 0x00, 0x03, 0x00, 0x00, 0x00,
  0x4c, 0xfc, 0xff, 0xff, 0x14, 0x00, 0x00, 0x00, 0x20, 0x00, 0x00, 0x00,
  0x20, 0x00, 0x00, 0x00, 0x0d, 0x00, 0x00, 0x00, 0x34, 0x00, 0x00, 0x00,
  0x03, 0x00, 0x00, 0x00, 0xff, 0xff, 0xff, 0xff, 0x07, 0x00, 0x00, 0x00,
  0x03, 0x00, 0x00, 0x00, 0x38, 0xfc, 0xff, 0xff, 0x17, 0x00, 0x00, 0x00,
  0x73, 0x65, 0x71, 0x75, 0x65, 0x6e, 0x74, 0x69, 0x61, 0x6c, 0x5f, 0x31,
  0x2f, 0x63, 0x6f, 0x6e, 0x76, 0x31, 0x64, 0x2f, 0x50, 0x61, 0x64, 0x00,
  0x03, 0x00, 0x00, 0x00, 0x01, 0x00, 0x00, 0x00, 0x07, 0x00, 0x00, 0x00,
  0x03, 0x00, 0x00, 0x00, 0x02, 0xfd, 0xff, 0xff, 0x10, 0x00, 0x00, 0x00,
  0x10, 0x00, 0x00, 0x00, 0x0c, 0x00, 0x00, 0x00, 0x28, 0x00, 0x00, 0x00,
  0x7c, 0xfc, 0xff, 0xff, 0x1a, 0x00, 0x00, 0x00, 0x73, 0x65, 0x71, 0x75,
  0x65, 0x6e, 0x74, 0x69, 0x61, 0x6c, 0x5f, 0x31, 0x2f, 0x63, 0x6f, 0x6e,
  0x76, 0x31, 0x64, 0x2f, 0x43, 0x6f, 0x6e, 0x76, 0x31, 0x44, 0x00, 0x00,
  0x04, 0x00, 0x00, 0x00, 0x20, 0x00, 0x00, 0x00, 0x01, 0x00, 0x00, 0x00,
  0x02, 0x00, 0x00, 0x00, 0x03, 0x00, 0x00, 0x00, 0x4e, 0xfd, 0xff, 0xff,
  0x10, 0x00, 0x00, 0x00, 0x10, 0x00, 0x00, 0x00, 0x0b, 0x00, 0x00, 0x00,
  0x28, 0x00, 0x00, 0x00, 0xc8, 0xfc, 0xff, 0xff, 0x1b, 0x00, 0x00, 0x00,
  0x73, 0x65, 0x71, 0x75, 0x65, 0x6e, 0x74, 0x69, 0x61, 0x6c, 0x5f, 0x31,
  0x2f, 0x64, 0x65, 0x6e, 0x73, 0x65, 0x5f, 0x33, 0x2f, 0x4d, 0x61, 0x74,
  0x4d, 0x75, 0x6c, 0x00, 0x02, 0x00, 0x00, 0x00, 0x01, 0x00, 0x00, 0x00,
  0x05, 0x00, 0x00, 0x00, 0x92, 0xfd, 0xff, 0xff, 0x10, 0x00, 0x00, 0x00,
  0x10, 0x00, 0x00, 0x00, 0x0a, 0x00, 0x00, 0x00, 0x28, 0x00, 0x00, 0x00,
  0x0c, 0xfd, 0xff, 0xff, 0x1b, 0x00, 0x00, 0x00, 0x73, 0x65, 0x71, 0x75,
  0x65, 0x6e, 0x74, 0x69, 0x61, 0x6c, 0x5f, 0x31, 0x2f, 0x64, 0x65, 0x6e,
  0x73, 0x65, 0x5f, 0x32, 0x2f, 0x4d, 0x61, 0x74, 0x4d, 0x75, 0x6c, 0x00,
  0x02, 0x00, 0x00, 0x00, 0x05, 0x00, 0x00, 0x00, 0x05, 0x00, 0x00, 0x00,
  0xd6, 0xfd, 0xff, 0xff, 0x10, 0x00, 0x00, 0x00, 0x10, 0x00, 0x00, 0x00,
  0x09, 0x00, 0x00, 0x00, 0x28, 0x00, 0x00, 0x00, 0x50, 0xfd, 0xff, 0xff,
  0x1b, 0x00, 0x00, 0x00, 0x73, 0x65, 0x71, 0x75, 0x65, 0x6e, 0x74, 0x69,
  0x61, 0x6c, 0x5f, 0x31, 0x2f, 0x64, 0x65, 0x6e, 0x73, 0x65, 0x5f, 0x31,
  0x2f, 0x4d, 0x61, 0x74, 0x4d, 0x75, 0x6c, 0x00, 0x02, 0x00, 0x00, 0x00,
  0x05, 0x00, 0x00, 0x00, 0xc0, 0x00, 0x00, 0x00, 0x5e, 0xff, 0xff, 0xff,
  0x14, 0x00, 0x00, 0x00, 0x14, 0x00, 0x00, 0x00, 0x08, 0x00, 0x00, 0x00,
  0x00, 0x00, 0x00, 0x02, 0x38, 0x00, 0x00, 0x00, 0x98, 0xfd, 0xff, 0xff,
  0x29, 0x00, 0x00, 0x00, 0x73, 0x65, 0x71, 0x75, 0x65, 0x6e, 0x74, 0x69,
  0x61, 0x6c, 0x5f, 0x31, 0x2f, 0x63, 0x6f, 0x6e, 0x76, 0x31, 0x64, 0x2f,
  0x43, 0x6f, 0x6e, 0x76, 0x31, 0x44, 0x2f, 0x45, 0x78, 0x70, 0x61, 0x6e,
  0x64, 0x44, 0x69, 0x6d, 0x73, 0x2f, 0x64, 0x69, 0x6d, 0x00, 0x00, 0x00,
  0x00, 0x00, 0x00, 0x00, 0xae, 0xff, 0xff, 0xff, 0x14, 0x00, 0x00, 0x00,
  0x14, 0x00, 0x00, 0x00, 0x07, 0x00, 0x00, 0x00, 0x00, 0x00, 0x00, 0x02,
  0x30, 0x00, 0x00, 0x00, 0xe8, 0xfd, 0xff, 0xff, 0x20, 0x00, 0x00, 0x00,
  0x73, 0x65, 0x71, 0x75, 0x65, 0x6e, 0x74, 0x69, 0x61, 0x6c, 0x5f, 0x31,
  0x2f, 0x63, 0x6f, 0x6e, 0x76, 0x31, 0x64, 0x2f, 0x50, 0x61, 0x64, 0x2f,
  0x70, 0x61, 0x64, 0x64, 0x69, 0x6e, 0x67, 0x73, 0x00, 0x00, 0x00, 0x00,
  0x02, 0x00, 0x00, 0x00, 0x03, 0x00, 0x00, 0x00, 0x02, 0x00, 0x00, 0x00,
  0x00, 0x00, 0x0e, 0x00, 0x18, 0x00, 0x14, 0x00, 0x13, 0x00, 0x0c, 0x00,
  0x08, 0x00, 0x04, 0x00, 0x0e, 0x00, 0x00, 0x00, 0x14, 0x00, 0x00, 0x00,
  0x14, 0x00, 0x00, 0x00, 0x06, 0x00, 0x00, 0x00, 0x00, 0x00, 0x00, 0x02,
  0x28, 0x00, 0x00, 0x00, 0x48, 0xfe, 0xff, 0xff, 0x1a, 0x00, 0x00, 0x00,
  0x73, 0x65, 0x71, 0x75, 0x65, 0x6e, 0x74, 0x69, 0x61, 0x6c, 0x5f, 0x31,
  0x2f, 0x66, 0x6c, 0x61, 0x74, 0x74, 0x65, 0x6e, 0x2f, 0x43, 0x6f, 0x6e,
  0x73, 0x74, 0x00, 0x00, 0x01, 0x00, 0x00, 0x00, 0x02, 0x00, 0x00, 0x00,
  0x0e, 0xff, 0xff, 0xff, 0x10, 0x00, 0x00, 0x00, 0x10, 0x00, 0x00, 0x00,
  0x05, 0x00, 0x00, 0x00, 0x38, 0x00, 0x00, 0x00, 0x88, 0xfe, 0xff, 0xff,
  0x2a, 0x00, 0x00, 0x00, 0x73, 0x65, 0x71, 0x75, 0x65, 0x6e, 0x74, 0x69,
  0x61, 0x6c, 0x5f, 0x31, 0x2f, 0x63, 0x6f, 0x6e, 0x76, 0x31, 0x64, 0x2f,
  0x42, 0x69, 0x61, 0x73, 0x41, 0x64, 0x64, 0x2f, 0x52, 0x65, 0x61, 0x64,
  0x56, 0x61, 0x72, 0x69, 0x61, 0x62, 0x6c, 0x65, 0x4f, 0x70, 0x00, 0x00,
  0x01, 0x00, 0x00, 0x00, 0x20, 0x00, 0x00, 0x00, 0x5e, 0xff, 0xff, 0xff,
  0x10, 0x00, 0x00, 0x00, 0x10, 0x00, 0x00, 0x00, 0x04, 0x00, 0x00, 0x00,
  0x38, 0x00, 0x00, 0x00, 0xd8, 0xfe, 0xff, 0xff, 0x2b, 0x00, 0x00, 0x00,
  0x73, 0x65, 0x71, 0x75, 0x65, 0x6e, 0x74, 0x69, 0x61, 0x6c, 0x5f, 0x31,
  0x2f, 0x64, 0x65, 0x6e, 0x73, 0x65, 0x5f, 0x31, 0x2f, 0x42, 0x69, 0x61,
  0x73, 0x41, 0x64, 0x64, 0x2f, 0x52, 0x65, 0x61, 0x64, 0x56, 0x61, 0x72,
  0x69, 0x61, 0x62, 0x6c, 0x65, 0x4f, 0x70, 0x00, 0x01, 0x00, 0x00, 0x00,
  0x05, 0x00, 0x00, 0x00, 0xae, 0xff, 0xff, 0xff, 0x10, 0x00, 0x00, 0x00,
  0x10, 0x00, 0x00, 0x00, 0x03, 0x00, 0x00, 0x00, 0x38, 0x00, 0x00, 0x00,
  0x28, 0xff, 0xff, 0xff, 0x2b, 0x00, 0x00, 0x00, 0x73, 0x65, 0x71, 0x75,
  0x65, 0x6e, 0x74, 0x69, 0x61, 0x6c, 0x5f, 0x31, 0x2f, 0x64, 0x65, 0x6e,
  0x73, 0x65, 0x5f, 0x32, 0x2f, 0x42, 0x69, 0x61, 0x73, 0x41, 0x64, 0x64,
  0x2f, 0x52, 0x65, 0x61, 0x64, 0x56, 0x61, 0x72, 0x69, 0x61, 0x62, 0x6c,
  0x65, 0x4f, 0x70, 0x00, 0x01, 0x00, 0x00, 0x00, 0x05, 0x00, 0x00, 0x00,
  0x00, 0x00, 0x0e, 0x00, 0x14, 0x00, 0x10, 0x00, 0x00, 0x00, 0x0c, 0x00,
  0x08, 0x00, 0x04, 0x00, 0x0e, 0x00, 0x00, 0x00, 0x10, 0x00, 0x00, 0x00,
  0x10, 0x00, 0x00, 0x00, 0x02, 0x00, 0x00, 0x00, 0x38, 0x00, 0x00, 0x00,
  0x88, 0xff, 0xff, 0xff, 0x2b, 0x00, 0x00, 0x00, 0x73, 0x65, 0x71, 0x75,
  0x65, 0x6e, 0x74, 0x69, 0x61, 0x6c, 0x5f, 0x31, 0x2f, 0x64, 0x65, 0x6e,
  0x73, 0x65, 0x5f, 0x33, 0x2f, 0x42, 0x69, 0x61, 0x73, 0x41, 0x64, 0x64,
  0x2f, 0x52, 0x65, 0x61, 0x64, 0x56, 0x61, 0x72, 0x69, 0x61, 0x62, 0x6c,
  0x65, 0x4f, 0x70, 0x00, 0x01, 0x00, 0x00, 0x00, 0x01, 0x00, 0x00, 0x00,
  0x14, 0x00, 0x18, 0x00, 0x14, 0x00, 0x00, 0x00, 0x10, 0x00, 0x0c, 0x00,
  0x08, 0x00, 0x00, 0x00, 0x00, 0x00, 0x04, 0x00, 0x14, 0x00, 0x00, 0x00,
  0x14, 0x00, 0x00, 0x00, 0x24, 0x00, 0x00, 0x00, 0x24, 0x00, 0x00, 0x00,
  0x01, 0x00, 0x00, 0x00, 0x40, 0x00, 0x00, 0x00, 0x03, 0x00, 0x00, 0x00,
  0xff, 0xff, 0xff, 0xff, 0x06, 0x00, 0x00, 0x00, 0x03, 0x00, 0x00, 0x00,
  0x04, 0x00, 0x04, 0x00, 0x04, 0x00, 0x00, 0x00, 0x1e, 0x00, 0x00, 0x00,
  0x73, 0x65, 0x72, 0x76, 0x69, 0x6e, 0x67, 0x5f, 0x64, 0x65, 0x66, 0x61,
  0x75, 0x6c, 0x74, 0x5f, 0x63, 0x6f, 0x6e, 0x76, 0x31, 0x64, 0x5f, 0x69,
  0x6e, 0x70, 0x75, 0x74, 0x3a, 0x30, 0x00, 0x00, 0x03, 0x00, 0x00, 0x00,
  0x01, 0x00, 0x00, 0x00, 0x06, 0x00, 0x00, 0x00, 0x03, 0x00, 0x00, 0x00,
  0x05, 0x00, 0x00, 0x00, 0x50, 0x00, 0x00, 0x00, 0x34, 0x00, 0x00, 0x00,
  0x24, 0x00, 0x00, 0x00, 0x14, 0x00, 0x00, 0x00, 0x04, 0x00, 0x00, 0x00,
  0xd0, 0xff, 0xff, 0xff, 0x09, 0x00, 0x00, 0x00, 0x00, 0x00, 0x00, 0x09,
  0xdc, 0xff, 0xff, 0xff, 0x16, 0x00, 0x00, 0x00, 0x00, 0x00, 0x00, 0x16,
  0xe8, 0xff, 0xff, 0xff, 0x03, 0x00, 0x00, 0x00, 0x00, 0x00, 0x00, 0x03,
  0xf4, 0xff, 0xff, 0xff, 0x46, 0x00, 0x00, 0x00, 0x00, 0x00, 0x00, 0x46,
  0x0c, 0x00, 0x0c, 0x00, 0x0b, 0x00, 0x00, 0x00, 0x00, 0x00, 0x04, 0x00,
  0x0c, 0x00, 0x00, 0x00, 0x22, 0x00, 0x00, 0x00, 0x00, 0x00, 0x00, 0x22
};
unsigned int PM10_cnn_test_tflite_len = 8184;
